unsigned char converted_model_tflite[] = {
  0x1c, 0x00, 0x00, 0x00, 0x54, 0x46, 0x4c, 0x33, 0x14, 0x00, 0x20, 0x00,
  0x04, 0x00, 0x08, 0x00, 0x0c, 0x00, 0x10, 0x00, 0x14, 0x00, 0x00, 0x00,
  0x18, 0x00, 0x1c, 0x00, 0x14, 0x00, 0x00, 0x00, 0x03, 0x00, 0x00, 0x00,
  0x18, 0x00, 0x00, 0x00, 0x38, 0x00, 0x00, 0x00, 0x80, 0x01, 0x00, 0x00,
  0x38, 0x00, 0x00, 0x00, 0x28, 0x01, 0x00, 0x00, 0x9c, 0x00, 0x00, 0x00,
  0x08, 0x00, 0x00, 0x00, 0x04, 0x0c, 0x00, 0x00, 0x30, 0x0b, 0x00, 0x00,
  0x00, 0x0a, 0x00, 0x00, 0x9c, 0x06, 0x00, 0x00, 0x94, 0x04, 0x00, 0x00,
  0xb0, 0x03, 0x00, 0x00, 0xf4, 0x02, 0x00, 0x00, 0x5c, 0x02, 0x00, 0x00,
  0x01, 0x00, 0x00, 0x00, 0x6c, 0x01, 0x00, 0x00, 0x1a, 0x00, 0x00, 0x00,
  0x48, 0x27, 0x00, 0x00, 0x44, 0x27, 0x00, 0x00, 0x28, 0x26, 0x00, 0x00,
  0xbc, 0x25, 0x00, 0x00, 0x00, 0x24, 0x00, 0x00, 0x24, 0x23, 0x00, 0x00,
  0xec, 0x1f, 0x00, 0x00, 0x94, 0x1e, 0x00, 0x00, 0x5c, 0x19, 0x00, 0x00,
  0x04, 0x18, 0x00, 0x00, 0xcc, 0x11, 0x00, 0x00, 0x74, 0x10, 0x00, 0x00,
  0xd4, 0x0c, 0x00, 0x00, 0x44, 0x0c, 0x00, 0x00, 0x10, 0x27, 0x00, 0x00,
  0x0c, 0x27, 0x00, 0x00, 0x08, 0x27, 0x00, 0x00, 0x04, 0x27, 0x00, 0x00,
  0x00, 0x27, 0x00, 0x00, 0xfc, 0x26, 0x00, 0x00, 0xf8, 0x26, 0x00, 0x00,
  0xf4, 0x26, 0x00, 0x00, 0xf0, 0x26, 0x00, 0x00, 0xec, 0x26, 0x00, 0x00,
  0xe8, 0x26, 0x00, 0x00, 0xc0, 0x00, 0x00, 0x00, 0x01, 0x00, 0x00, 0x00,
  0x10, 0x00, 0x00, 0x00, 0x00, 0x00, 0x0a, 0x00, 0x10, 0x00, 0x0c, 0x00,
  0x08, 0x00, 0x04, 0x00, 0x0a, 0x00, 0x00, 0x00, 0x0c, 0x00, 0x00, 0x00,
  0x1c, 0x00, 0x00, 0x00, 0x20, 0x00, 0x00, 0x00, 0x0f, 0x00, 0x00, 0x00,
  0x73, 0x65, 0x72, 0x76, 0x69, 0x6e, 0x67, 0x5f, 0x64, 0x65, 0x66, 0x61,
  0x75, 0x6c, 0x74, 0x00, 0x01, 0x00, 0x00, 0x00, 0x14, 0x00, 0x00, 0x00,
  0x01, 0x00, 0x00, 0x00, 0x28, 0x00, 0x00, 0x00, 0x08, 0x00, 0x0c, 0x00,
  0x08, 0x00, 0x04, 0x00, 0x08, 0x00, 0x00, 0x00, 0x17, 0x00, 0x00, 0x00,
  0x04, 0x00, 0x00, 0x00, 0x0b, 0x00, 0x00, 0x00, 0x70, 0x72, 0x65, 0x64,
  0x69, 0x63, 0x74, 0x69, 0x6f, 0x6e, 0x73, 0x00, 0xaa, 0xda, 0xff, 0xff,
  0x04, 0x00, 0x00, 0x00, 0x0c, 0x00, 0x00, 0x00, 0x73, 0x65, 0x6e, 0x73,
  0x6f, 0x72, 0x5f, 0x69, 0x6d, 0x61, 0x67, 0x65, 0x00, 0x00, 0x00, 0x00,
  0x01, 0x00, 0x00, 0x00, 0x0c, 0x00, 0x00, 0x00, 0x08, 0x00, 0x0c, 0x00,
  0x04, 0x00, 0x08, 0x00, 0x08, 0x00, 0x00, 0x00, 0x08, 0x00, 0x00, 0x00,
  0x19, 0x00, 0x00, 0x00, 0x13, 0x00, 0x00, 0x00, 0x6d, 0x69, 0x6e, 0x5f,
  0x72, 0x75, 0x6e, 0x74, 0x69, 0x6d, 0x65, 0x5f, 0x76, 0x65, 0x72, 0x73,
  0x69, 0x6f, 0x6e, 0x00, 0xfa, 0xda, 0xff, 0xff, 0x04, 0x00, 0x00, 0x00,
  0x10, 0x00, 0x00, 0x00, 0x31, 0x2e, 0x31, 0x34, 0x2e, 0x30, 0x00, 0x00,
  0x00, 0x00, 0x00, 0x00, 0x00, 0x00, 0x00, 0x00, 0x0f, 0x00, 0x00, 0x00,
  0x4d, 0x4c, 0x49, 0x52, 0x20, 0x43, 0x6f, 0x6e, 0x76, 0x65, 0x72, 0x74,
  0x65, 0x64, 0x2e, 0x00, 0x00, 0x00, 0x0e, 0x00, 0x18, 0x00, 0x04, 0x00,
  0x08, 0x00, 0x0c, 0x00, 0x10, 0x00, 0x14, 0x00, 0x0e, 0x00, 0x00, 0x00,
  0x14, 0x00, 0x00, 0x00, 0x74, 0x00, 0x00, 0x00, 0x78, 0x00, 0x00, 0x00,
  0x7c, 0x00, 0x00, 0x00, 0xa8, 0x00, 0x00, 0x00, 0x18, 0x00, 0x00, 0x00,
  0x5c, 0x25, 0x00, 0x00, 0xe8, 0x24, 0x00, 0x00, 0x54, 0x24, 0x00, 0x00,
  0x68, 0x23, 0x00, 0x00, 0xd4, 0x21, 0x00, 0x00, 0x7c, 0x20, 0x00, 0x00,
  0x64, 0x1d, 0x00, 0x00, 0xec, 0x1b, 0x00, 0x00, 0xd4, 0x16, 0x00, 0x00,
  0x5c, 0x15, 0x00, 0x00, 0x44, 0x0f, 0x00, 0x00, 0x84, 0x0e, 0x00, 0x00,
  0xfc, 0x0a, 0x00, 0x00, 0x48, 0x0a, 0x00, 0x00, 0x60, 0x09, 0x00, 0x00,
  0x30, 0x08, 0x00, 0x00, 0xd4, 0x06, 0x00, 0x00, 0x98, 0x05, 0x00, 0x00,
  0xc4, 0x04, 0x00, 0x00, 0x78, 0x03, 0x00, 0x00, 0xb8, 0x02, 0x00, 0x00,
  0xd4, 0x01, 0x00, 0x00, 0x18, 0x01, 0x00, 0x00, 0x80, 0x00, 0x00, 0x00,
  0x01, 0x00, 0x00, 0x00, 0x00, 0x00, 0x00, 0x00, 0x01, 0x00, 0x00, 0x00,
  0x17, 0x00, 0x00, 0x00, 0x0b, 0x00, 0x00, 0x00, 0xbc, 0x09, 0x00, 0x00,
  0xe0, 0x08, 0x00, 0x00, 0x94, 0x07, 0x00, 0x00, 0x54, 0x06, 0x00, 0x00,
  0x18, 0x05, 0x00, 0x00, 0x24, 0x04, 0x00, 0x00, 0xf8, 0x02, 0x00, 0x00,
  0x44, 0x02, 0x00, 0x00, 0x50, 0x01, 0x00, 0x00, 0x98, 0x00, 0x00, 0x00,
  0x10, 0x00, 0x00, 0x00, 0x04, 0x00, 0x00, 0x00, 0x6d, 0x61, 0x69, 0x6e,
  0x00, 0x00, 0x00, 0x00, 0xe2, 0xfd, 0xff, 0xff, 0x07, 0x00, 0x00, 0x00,
  0x10, 0x00, 0x00, 0x00, 0x04, 0x00, 0x00, 0x00, 0x01, 0x00, 0x00, 0x00,
  0x17, 0x00, 0x00, 0x00, 0x01, 0x00, 0x00, 0x00, 0x16, 0x00, 0x00, 0x00,
  0x80, 0xf6, 0xff, 0xff, 0x06, 0x00, 0x00, 0x00, 0x00, 0x00, 0x00, 0x06,
  0x02, 0x00, 0x00, 0x00, 0x94, 0xdb, 0xff, 0xff, 0x14, 0x00, 0x00, 0x00,
  0x18, 0x00, 0x00, 0x00, 0x24, 0x00, 0x00, 0x00, 0x40, 0x00, 0x00, 0x00,
  0x10, 0x00, 0x00, 0x00, 0x02, 0x00, 0x00, 0x00, 0x01, 0x00, 0x00, 0x00,
  0x0a, 0x00, 0x00, 0x00, 0x02, 0x00, 0x00, 0x00, 0xff, 0xff, 0xff, 0xff,
  0x0a, 0x00, 0x00, 0x00, 0x19, 0x00, 0x00, 0x00, 0x53, 0x74, 0x61, 0x74,
  0x65, 0x66, 0x75, 0x6c, 0x50, 0x61, 0x72, 0x74, 0x69, 0x74, 0x69, 0x6f,
  0x6e, 0x65, 0x64, 0x43, 0x61, 0x6c, 0x6c, 0x3a, 0x30, 0x00, 0x00, 0x00,
  0x68, 0xdb, 0xff, 0xff, 0xe6, 0xf7, 0xff, 0xff, 0x00, 0x00, 0x00, 0x09,
  0x06, 0x00, 0x00, 0x00, 0x1c, 0x00, 0x00, 0x00, 0x10, 0x00, 0x00, 0x00,
  0x04, 0x00, 0x00, 0x00, 0x9e, 0xdc, 0xff, 0xff, 0x00, 0x00, 0x80, 0x3f,
  0x01, 0x00, 0x00, 0x00, 0x16, 0x00, 0x00, 0x00, 0x01, 0x00, 0x00, 0x00,
  0x15, 0x00, 0x00, 0x00, 0x14, 0xf7, 0xff, 0xff, 0x19, 0x00, 0x00, 0x00,
  0x00, 0x00, 0x00, 0x19, 0x02, 0x00, 0x00, 0x00, 0x08, 0xf7, 0xff, 0xff,
  0x00, 0x00, 0x00, 0x09, 0x14, 0x00, 0x00, 0x00, 0x17, 0x00, 0x00, 0x00,
  0x24, 0x00, 0x00, 0x00, 0x40, 0x00, 0x00, 0x00, 0x10, 0x00, 0x00, 0x00,
  0x02, 0x00, 0x00, 0x00, 0x01, 0x00, 0x00, 0x00, 0x0a, 0x00, 0x00, 0x00,
  0x02, 0x00, 0x00, 0x00, 0xff, 0xff, 0xff, 0xff, 0x0a, 0x00, 0x00, 0x00,
  0x1a, 0x00, 0x00, 0x00, 0x53, 0x74, 0x61, 0x74, 0x65, 0x66, 0x75, 0x6c,
  0x50, 0x61, 0x72, 0x74, 0x69, 0x74, 0x69, 0x6f, 0x6e, 0x65, 0x64, 0x43,
  0x61, 0x6c, 0x6c, 0x3a, 0x30, 0x31, 0x00, 0x00, 0x00, 0xde, 0xff, 0xff,
  0x08, 0x00, 0x00, 0x00, 0x0c, 0x00, 0x00, 0x00, 0x01, 0x00, 0x00, 0x00,
  0x00, 0x00, 0x80, 0x3b, 0x01, 0x00, 0x00, 0x00, 0x80, 0xff, 0xff, 0xff,
  0xff, 0xff, 0xff, 0xff, 0x9a, 0xf8, 0xff, 0xff, 0x00, 0x00, 0x00, 0x08,
  0x05, 0x00, 0x00, 0x00, 0x18, 0x00, 0x00, 0x00, 0x0c, 0x00, 0x00, 0x00,
  0x04, 0x00, 0x00, 0x00, 0x38, 0xdc, 0xff, 0xff, 0x01, 0x00, 0x00, 0x00,
  0x15, 0x00, 0x00, 0x00, 0x03, 0x00, 0x00, 0x00, 0x14, 0x00, 0x00, 0x00,
  0x0b, 0x00, 0x00, 0x00, 0x0c, 0x00, 0x00, 0x00, 0xcc, 0xf7, 0xff, 0xff,
  0x09, 0x00, 0x00, 0x00, 0x00, 0x00, 0x00, 0x09, 0x04, 0x00, 0x00, 0x00,
  0xc0, 0xf7, 0xff, 0xff, 0x00, 0x00, 0x00, 0x09, 0x14, 0x00, 0x00, 0x00,
  0x16, 0x00, 0x00, 0x00, 0x24, 0x00, 0x00, 0x00, 0x68, 0x00, 0x00, 0x00,
  0x10, 0x00, 0x00, 0x00, 0x02, 0x00, 0x00, 0x00, 0x01, 0x00, 0x00, 0x00,
  0x0a, 0x00, 0x00, 0x00, 0x02, 0x00, 0x00, 0x00, 0xff, 0xff, 0xff, 0xff,
  0x0a, 0x00, 0x00, 0x00, 0x42, 0x00, 0x00, 0x00, 0x73, 0x65, 0x71, 0x75,
  0x65, 0x6e, 0x74, 0x69, 0x61, 0x6c, 0x5f, 0x34, 0x33, 0x2f, 0x70, 0x72,
  0x65, 0x64, 0x69, 0x63, 0x74, 0x69, 0x6f, 0x6e, 0x73, 0x2f, 0x4d, 0x61,
  0x74, 0x4d, 0x75, 0x6c, 0x3b, 0x73, 0x65, 0x71, 0x75, 0x65, 0x6e, 0x74,
  0x69, 0x61, 0x6c, 0x5f, 0x34, 0x33, 0x2f, 0x70, 0x72, 0x65, 0x64, 0x69,
  0x63, 0x74, 0x69, 0x6f, 0x6e, 0x73, 0x2f, 0x42, 0x69, 0x61, 0x73, 0x41,
  0x64, 0x64, 0x00, 0x00, 0xe0, 0xde, 0xff, 0xff, 0x08, 0x00, 0x00, 0x00,
  0x0c, 0x00, 0x00, 0x00, 0x01, 0x00, 0x00, 0x00, 0x39, 0x9f, 0xb8, 0x3e,
  0x01, 0x00, 0x00, 0x00, 0x3d, 0x00, 0x00, 0x00, 0x00, 0x00, 0x00, 0x00,
  0x00, 0x00, 0x00, 0x00, 0x00, 0x00, 0x0a, 0x00, 0x10, 0x00, 0x04, 0x00,
  0x08, 0x00, 0x0c, 0x00, 0x0a, 0x00, 0x00, 0x00, 0x04, 0x00, 0x00, 0x00,
  0x10, 0x00, 0x00, 0x00, 0x04, 0x00, 0x00, 0x00, 0x01, 0x00, 0x00, 0x00,
  0x14, 0x00, 0x00, 0x00, 0x02, 0x00, 0x00, 0x00, 0x13, 0x00, 0x00, 0x00,
  0x02, 0x00, 0x00, 0x00, 0xac, 0xf8, 0xff, 0xff, 0x16, 0x00, 0x00, 0x00,
  0x00, 0x00, 0x00, 0x16, 0x01, 0x00, 0x00, 0x00, 0xa0, 0xf8, 0xff, 0xff,
  0x00, 0x00, 0x00, 0x09, 0x14, 0x00, 0x00, 0x00, 0x15, 0x00, 0x00, 0x00,
  0x24, 0x00, 0x00, 0x00, 0x48, 0x00, 0x00, 0x00, 0x10, 0x00, 0x00, 0x00,
  0x02, 0x00, 0x00, 0x00, 0x01, 0x00, 0x00, 0x00, 0x50, 0x00, 0x00, 0x00,
  0x02, 0x00, 0x00, 0x00, 0xff, 0xff, 0xff, 0xff, 0x50, 0x00, 0x00, 0x00,
  0x20, 0x00, 0x00, 0x00, 0x73, 0x65, 0x71, 0x75, 0x65, 0x6e, 0x74, 0x69,
  0x61, 0x6c, 0x5f, 0x34, 0x33, 0x2f, 0x66, 0x6c, 0x61, 0x74, 0x74, 0x65,
  0x6e, 0x5f, 0x34, 0x33, 0x2f, 0x52, 0x65, 0x73, 0x68, 0x61, 0x70, 0x65,
  0x00, 0x00, 0x00, 0x00, 0xa0, 0xdf, 0xff, 0xff, 0x08, 0x00, 0x00, 0x00,
  0x0c, 0x00, 0x00, 0x00, 0x01, 0x00, 0x00, 0x00, 0x0d, 0x23, 0x01, 0x3d,
  0x01, 0x00, 0x00, 0x00, 0x80, 0xff, 0xff, 0xff, 0xff, 0xff, 0xff, 0xff,
  0x3a, 0xfa, 0xff, 0xff, 0x00, 0x00, 0x00, 0x01, 0x02, 0x00, 0x00, 0x00,
  0x24, 0x00, 0x00, 0x00, 0x18, 0x00, 0x00, 0x00, 0x04, 0x00, 0x00, 0x00,
  0x74, 0xfb, 0xff, 0xff, 0x01, 0x00, 0x00, 0x00, 0x01, 0x00, 0x00, 0x00,
  0x00, 0x00, 0x01, 0x01, 0x01, 0x00, 0x00, 0x00, 0x13, 0x00, 0x00, 0x00,
  0x03, 0x00, 0x00, 0x00, 0x12, 0x00, 0x00, 0x00, 0x09, 0x00, 0x00, 0x00,
  0x0a, 0x00, 0x00, 0x00, 0x5c, 0xf9, 0xff, 0xff, 0x00, 0x00, 0x00, 0x09,
  0x14, 0x00, 0x00, 0x00, 0x14, 0x00, 0x00, 0x00, 0x34, 0x00, 0x00, 0x00,
  0xa4, 0x00, 0x00, 0x00, 0x18, 0x00, 0x00, 0x00, 0x04, 0x00, 0x00, 0x00,
  0x01, 0x00, 0x00, 0x00, 0x01, 0x00, 0x00, 0x00, 0x05, 0x00, 0x00, 0x00,
  0x10, 0x00, 0x00, 0x00, 0x04, 0x00, 0x00, 0x00, 0xff, 0xff, 0xff, 0xff,
  0x01, 0x00, 0x00, 0x00, 0x05, 0x00, 0x00, 0x00, 0x10, 0x00, 0x00, 0x00,
  0x6e, 0x00, 0x00, 0x00, 0x73, 0x65, 0x71, 0x75, 0x65, 0x6e, 0x74, 0x69,
  0x61, 0x6c, 0x5f, 0x34, 0x33, 0x2f, 0x63, 0x6f, 0x6e, 0x76, 0x32, 0x64,
  0x5f, 0x31, 0x34, 0x32, 0x2f, 0x52, 0x65, 0x6c, 0x75, 0x3b, 0x73, 0x65,
  0x71, 0x75, 0x65, 0x6e, 0x74, 0x69, 0x61, 0x6c, 0x5f, 0x34, 0x33, 0x2f,
  0x63, 0x6f, 0x6e, 0x76, 0x32, 0x64, 0x5f, 0x31, 0x34, 0x32, 0x2f, 0x42,
  0x69, 0x61, 0x73, 0x41, 0x64, 0x64, 0x3b, 0x73, 0x65, 0x71, 0x75, 0x65,
  0x6e, 0x74, 0x69, 0x61, 0x6c, 0x5f, 0x34, 0x33, 0x2f, 0x63, 0x6f, 0x6e,
  0x76, 0x32, 0x64, 0x5f, 0x31, 0x34, 0x32, 0x2f, 0x43, 0x6f, 0x6e, 0x76,
  0x32, 0x44, 0x3b, 0x63, 0x6f, 0x6e, 0x76, 0x32, 0x64, 0x5f, 0x31, 0x34,
  0x32, 0x2f, 0x62, 0x69, 0x61, 0x73, 0x00, 0x00, 0xb8, 0xe0, 0xff, 0xff,
  0x08, 0x00, 0x00, 0x00, 0x0c, 0x00, 0x00, 0x00, 0x01, 0x00, 0x00, 0x00,
  0x0d, 0x23, 0x01, 0x3d, 0x01, 0x00, 0x00, 0x00, 0x80, 0xff, 0xff, 0xff,
  0xff, 0xff, 0xff, 0xff, 0x00, 0x00, 0x0e, 0x00, 0x1a, 0x00, 0x08, 0x00,
  0x0c, 0x00, 0x10, 0x00, 0x07, 0x00, 0x14, 0x00, 0x0e, 0x00, 0x00, 0x00,
  0x00, 0x00, 0x00, 0x05, 0x03, 0x00, 0x00, 0x00, 0x3c, 0x00, 0x00, 0x00,
  0x30, 0x00, 0x00, 0x00, 0x14, 0x00, 0x00, 0x00, 0x00, 0x00, 0x0e, 0x00,
  0x18, 0x00, 0x17, 0x00, 0x10, 0x00, 0x0c, 0x00, 0x08, 0x00, 0x04, 0x00,
  0x0e, 0x00, 0x00, 0x00, 0x03, 0x00, 0x00, 0x00, 0x01, 0x00, 0x00, 0x00,
  0x03, 0x00, 0x00, 0x00, 0x01, 0x00, 0x00, 0x00, 0x00, 0x00, 0x00, 0x01,
  0x01, 0x00, 0x00, 0x00, 0x12, 0x00, 0x00, 0x00, 0x01, 0x00, 0x00, 0x00,
  0x11, 0x00, 0x00, 0x00, 0xb0, 0xfa, 0xff, 0xff, 0x11, 0x00, 0x00, 0x00,
  0x00, 0x00, 0x00, 0x11, 0x02, 0x00, 0x00, 0x00, 0xa4, 0xfa, 0xff, 0xff,
  0x00, 0x00, 0x00, 0x09, 0x14, 0x00, 0x00, 0x00, 0x13, 0x00, 0x00, 0x00,
  0x34, 0x00, 0x00, 0x00, 0x5c, 0x00, 0x00, 0x00, 0x18, 0x00, 0x00, 0x00,
  0x04, 0x00, 0x00, 0x00, 0x01, 0x00, 0x00, 0x00, 0x05, 0x00, 0x00, 0x00,
  0x05, 0x00, 0x00, 0x00, 0x10, 0x00, 0x00, 0x00, 0x04, 0x00, 0x00, 0x00,
  0xff, 0xff, 0xff, 0xff, 0x05, 0x00, 0x00, 0x00, 0x05, 0x00, 0x00, 0x00,
  0x10, 0x00, 0x00, 0x00, 0x27, 0x00, 0x00, 0x00, 0x73, 0x65, 0x71, 0x75,
  0x65, 0x6e, 0x74, 0x69, 0x61, 0x6c, 0x5f, 0x34, 0x33, 0x2f, 0x6d, 0x61,
  0x78, 0x5f, 0x70, 0x6f, 0x6f, 0x6c, 0x69, 0x6e, 0x67, 0x32, 0x64, 0x5f,
  0x31, 0x30, 0x39, 0x2f, 0x4d, 0x61, 0x78, 0x50, 0x6f, 0x6f, 0x6c, 0x00,
  0xb8, 0xe1, 0xff, 0xff, 0x08, 0x00, 0x00, 0x00, 0x0c, 0x00, 0x00, 0x00,
  0x01, 0x00, 0x00, 0x00, 0x00, 0xdd, 0xf2, 0x3c, 0x01, 0x00, 0x00, 0x00,
  0x80, 0xff, 0xff, 0xff, 0xff, 0xff, 0xff, 0xff, 0x52, 0xfc, 0xff, 0xff,
  0x00, 0x00, 0x00, 0x01, 0x02, 0x00, 0x00, 0x00, 0x24, 0x00, 0x00, 0x00,
  0x18, 0x00, 0x00, 0x00, 0x04, 0x00, 0x00, 0x00, 0x8c, 0xfd, 0xff, 0xff,
  0x01, 0x00, 0x00, 0x00, 0x01, 0x00, 0x00, 0x00, 0x00, 0x00, 0x01, 0x01,
  0x01, 0x00, 0x00, 0x00, 0x11, 0x00, 0x00, 0x00, 0x03, 0x00, 0x00, 0x00,
  0x10, 0x00, 0x00, 0x00, 0x07, 0x00, 0x00, 0x00, 0x08, 0x00, 0x00, 0x00,
  0x74, 0xfb, 0xff, 0xff, 0x00, 0x00, 0x00, 0x09, 0x14, 0x00, 0x00, 0x00,
  0x12, 0x00, 0x00, 0x00, 0x34, 0x00, 0x00, 0x00, 0xc4, 0x00, 0x00, 0x00,
  0x18, 0x00, 0x00, 0x00, 0x04, 0x00, 0x00, 0x00, 0x01, 0x00, 0x00, 0x00,
  0x10, 0x00, 0x00, 0x00, 0x05, 0x00, 0x00, 0x00, 0x10, 0x00, 0x00, 0x00,
  0x04, 0x00, 0x00, 0x00, 0xff, 0xff, 0xff, 0xff, 0x10, 0x00, 0x00, 0x00,
  0x05, 0x00, 0x00, 0x00, 0x10, 0x00, 0x00, 0x00, 0x8e, 0x00, 0x00, 0x00,
  0x73, 0x65, 0x71, 0x75, 0x65, 0x6e, 0x74, 0x69, 0x61, 0x6c, 0x5f, 0x34,
  0x33, 0x2f, 0x63, 0x6f, 0x6e, 0x76, 0x32, 0x64, 0x5f, 0x31, 0x34, 0x31,
  0x2f, 0x52, 0x65, 0x6c, 0x75, 0x3b, 0x73, 0x65, 0x71, 0x75, 0x65, 0x6e,
  0x74, 0x69, 0x61, 0x6c, 0x5f, 0x34, 0x33, 0x2f, 0x63, 0x6f, 0x6e, 0x76,
  0x32, 0x64, 0x5f, 0x31, 0x34, 0x31, 0x2f, 0x42, 0x69, 0x61, 0x73, 0x41,
  0x64, 0x64, 0x3b, 0x73, 0x65, 0x71, 0x75, 0x65, 0x6e, 0x74, 0x69, 0x61,
  0x6c, 0x5f, 0x34, 0x33, 0x2f, 0x63, 0x6f, 0x6e, 0x76, 0x32, 0x64, 0x5f,
  0x31, 0x34, 0x32, 0x2f, 0x43, 0x6f, 0x6e, 0x76, 0x32, 0x44, 0x3b, 0x73,
  0x65, 0x71, 0x75, 0x65, 0x6e, 0x74, 0x69, 0x61, 0x6c, 0x5f, 0x34, 0x33,
  0x2f, 0x63, 0x6f, 0x6e, 0x76, 0x32, 0x64, 0x5f, 0x31, 0x34, 0x31, 0x2f,
  0x43, 0x6f, 0x6e, 0x76, 0x32, 0x44, 0x3b, 0x63, 0x6f, 0x6e, 0x76, 0x32,
  0x64, 0x5f, 0x31, 0x34, 0x31, 0x2f, 0x62, 0x69, 0x61, 0x73, 0x00, 0x00,
  0xf0, 0xe2, 0xff, 0xff, 0x08, 0x00, 0x00, 0x00, 0x0c, 0x00, 0x00, 0x00,
  0x01, 0x00, 0x00, 0x00, 0x00, 0xdd, 0xf2, 0x3c, 0x01, 0x00, 0x00, 0x00,
  0x80, 0xff, 0xff, 0xff, 0xff, 0xff, 0xff, 0xff, 0x8a, 0xfd, 0xff, 0xff,
  0x00, 0x00, 0x00, 0x01, 0x02, 0x00, 0x00, 0x00, 0x24, 0x00, 0x00, 0x00,
  0x18, 0x00, 0x00, 0x00, 0x04, 0x00, 0x00, 0x00, 0xc4, 0xfe, 0xff, 0xff,
  0x01, 0x00, 0x00, 0x00, 0x01, 0x00, 0x00, 0x00, 0x00, 0x00, 0x01, 0x01,
  0x01, 0x00, 0x00, 0x00, 0x10, 0x00, 0x00, 0x00, 0x03, 0x00, 0x00, 0x00,
  0x0f, 0x00, 0x00, 0x00, 0x05, 0x00, 0x00, 0x00, 0x06, 0x00, 0x00, 0x00,
  0xac, 0xfc, 0xff, 0xff, 0x00, 0x00, 0x00, 0x09, 0x14, 0x00, 0x00, 0x00,
  0x11, 0x00, 0x00, 0x00, 0x34, 0x00, 0x00, 0x00, 0xc4, 0x00, 0x00, 0x00,
  0x18, 0x00, 0x00, 0x00, 0x04, 0x00, 0x00, 0x00, 0x01, 0x00, 0x00, 0x00,
  0x11, 0x00, 0x00, 0x00, 0x06, 0x00, 0x00, 0x00, 0x10, 0x00, 0x00, 0x00,
  0x04, 0x00, 0x00, 0x00, 0xff, 0xff, 0xff, 0xff, 0x11, 0x00, 0x00, 0x00,
  0x06, 0x00, 0x00, 0x00, 0x10, 0x00, 0x00, 0x00, 0x8e, 0x00, 0x00, 0x00,
  0x73, 0x65, 0x71, 0x75, 0x65, 0x6e, 0x74, 0x69, 0x61, 0x6c, 0x5f, 0x34,
  0x33, 0x2f, 0x63, 0x6f, 0x6e, 0x76, 0x32, 0x64, 0x5f, 0x31, 0x34, 0x30,
  0x2f, 0x52, 0x65, 0x6c, 0x75, 0x3b, 0x73, 0x65, 0x71, 0x75, 0x65, 0x6e,
  0x74, 0x69, 0x61, 0x6c, 0x5f, 0x34, 0x33, 0x2f, 0x63, 0x6f, 0x6e, 0x76,
  0x32, 0x64, 0x5f, 0x31, 0x34, 0x30, 0x2f, 0x42, 0x69, 0x61, 0x73, 0x41,
  0x64, 0x64, 0x3b, 0x73, 0x65, 0x71, 0x75, 0x65, 0x6e, 0x74, 0x69, 0x61,
  0x6c, 0x5f, 0x34, 0x33, 0x2f, 0x63, 0x6f, 0x6e, 0x76, 0x32, 0x64, 0x5f,
  0x31, 0x34, 0x32, 0x2f, 0x43, 0x6f, 0x6e, 0x76, 0x32, 0x44, 0x3b, 0x73,
  0x65, 0x71, 0x75, 0x65, 0x6e, 0x74, 0x69, 0x61, 0x6c, 0x5f, 0x34, 0x33,
  0x2f, 0x63, 0x6f, 0x6e, 0x76, 0x32, 0x64, 0x5f, 0x31, 0x34, 0x30, 0x2f,
  0x43, 0x6f, 0x6e, 0x76, 0x32, 0x44, 0x3b, 0x63, 0x6f, 0x6e, 0x76, 0x32,
  0x64, 0x5f, 0x31, 0x34, 0x30, 0x2f, 0x62, 0x69, 0x61, 0x73, 0x00, 0x00,
  0x28, 0xe4, 0xff, 0xff, 0x08, 0x00, 0x00, 0x00, 0x0c, 0x00, 0x00, 0x00,
  0x01, 0x00, 0x00, 0x00, 0xe5, 0xc7, 0xf5, 0x3c, 0x01, 0x00, 0x00, 0x00,
  0x80, 0xff, 0xff, 0xff, 0xff, 0xff, 0xff, 0xff, 0x00, 0x00, 0x00, 0x00,
  0xc6, 0xfe, 0xff, 0xff, 0x00, 0x00, 0x00, 0x01, 0x02, 0x00, 0x00, 0x00,
  0x30, 0x00, 0x00, 0x00, 0x24, 0x00, 0x00, 0x00, 0x10, 0x00, 0x00, 0x00,
  0x0c, 0x00, 0x10, 0x00, 0x0e, 0x00, 0x04, 0x00, 0x08, 0x00, 0x0f, 0x00,
  0x0c, 0x00, 0x00, 0x00, 0x01, 0x00, 0x00, 0x00, 0x01, 0x00, 0x00, 0x00,
  0x00, 0x00, 0x01, 0x01, 0x01, 0x00, 0x00, 0x00, 0x0f, 0x00, 0x00, 0x00,
  0x03, 0x00, 0x00, 0x00, 0x0e, 0x00, 0x00, 0x00, 0x03, 0x00, 0x00, 0x00,
  0x04, 0x00, 0x00, 0x00, 0x10, 0xfe, 0xff, 0xff, 0x03, 0x00, 0x00, 0x00,
  0x00, 0x00, 0x00, 0x03, 0x03, 0x00, 0x00, 0x00, 0x04, 0xfe, 0xff, 0xff,
  0x00, 0x00, 0x00, 0x09, 0x14, 0x00, 0x00, 0x00, 0x10, 0x00, 0x00, 0x00,
  0x34, 0x00, 0x00, 0x00, 0xa4, 0x00, 0x00, 0x00, 0x18, 0x00, 0x00, 0x00,
  0x04, 0x00, 0x00, 0x00, 0x01, 0x00, 0x00, 0x00, 0x12, 0x00, 0x00, 0x00,
  0x07, 0x00, 0x00, 0x00, 0x08, 0x00, 0x00, 0x00, 0x04, 0x00, 0x00, 0x00,
  0xff, 0xff, 0xff, 0xff, 0x12, 0x00, 0x00, 0x00, 0x07, 0x00, 0x00, 0x00,
  0x08, 0x00, 0x00, 0x00, 0x6e, 0x00, 0x00, 0x00, 0x73, 0x65, 0x71, 0x75,
  0x65, 0x6e, 0x74, 0x69, 0x61, 0x6c, 0x5f, 0x34, 0x33, 0x2f, 0x63, 0x6f,
  0x6e, 0x76, 0x32, 0x64, 0x5f, 0x31, 0x33, 0x39, 0x2f, 0x52, 0x65, 0x6c,
  0x75, 0x3b, 0x73, 0x65, 0x71, 0x75, 0x65, 0x6e, 0x74, 0x69, 0x61, 0x6c,
  0x5f, 0x34, 0x33, 0x2f, 0x63, 0x6f, 0x6e, 0x76, 0x32, 0x64, 0x5f, 0x31,
  0x33, 0x39, 0x2f, 0x42, 0x69, 0x61, 0x73, 0x41, 0x64, 0x64, 0x3b, 0x73,
  0x65, 0x71, 0x75, 0x65, 0x6e, 0x74, 0x69, 0x61, 0x6c, 0x5f, 0x34, 0x33,
  0x2f, 0x63, 0x6f, 0x6e, 0x76, 0x32, 0x64, 0x5f, 0x31, 0x33, 0x39, 0x2f,
  0x43, 0x6f, 0x6e, 0x76, 0x32, 0x44, 0x3b, 0x63, 0x6f, 0x6e, 0x76, 0x32,
  0x64, 0x5f, 0x31, 0x33, 0x39, 0x2f, 0x62, 0x69, 0x61, 0x73, 0x00, 0x00,
  0x60, 0xe5, 0xff, 0xff, 0x08, 0x00, 0x00, 0x00, 0x0c, 0x00, 0x00, 0x00,
  0x01, 0x00, 0x00, 0x00, 0x19, 0x88, 0xd7, 0x3c, 0x01, 0x00, 0x00, 0x00,
  0x80, 0xff, 0xff, 0xff, 0xff, 0xff, 0xff, 0xff, 0x00, 0x00, 0x00, 0x00,
  0x00, 0x00, 0x0e, 0x00, 0x18, 0x00, 0x08, 0x00, 0x0c, 0x00, 0x10, 0x00,
  0x07, 0x00, 0x14, 0x00, 0x0e, 0x00, 0x00, 0x00, 0x00, 0x00, 0x00, 0x16,
  0x01, 0x00, 0x00, 0x00, 0x18, 0x00, 0x00, 0x00, 0x0c, 0x00, 0x00, 0x00,
  0x04, 0x00, 0x00, 0x00, 0xac, 0xe3, 0xff, 0xff, 0x01, 0x00, 0x00, 0x00,
  0x0e, 0x00, 0x00, 0x00, 0x02, 0x00, 0x00, 0x00, 0x0d, 0x00, 0x00, 0x00,
  0x01, 0x00, 0x00, 0x00, 0x3c, 0xff, 0xff, 0xff, 0x22, 0x00, 0x00, 0x00,
  0x00, 0x00, 0x00, 0x22, 0x02, 0x00, 0x00, 0x00, 0x30, 0xff, 0xff, 0xff,
  0x00, 0x00, 0x00, 0x09, 0x14, 0x00, 0x00, 0x00, 0x0f, 0x00, 0x00, 0x00,
  0x34, 0x00, 0x00, 0x00, 0x58, 0x00, 0x00, 0x00, 0x18, 0x00, 0x00, 0x00,
  0x04, 0x00, 0x00, 0x00, 0x01, 0x00, 0x00, 0x00, 0x14, 0x00, 0x00, 0x00,
  0x09, 0x00, 0x00, 0x00, 0x03, 0x00, 0x00, 0x00, 0x04, 0x00, 0x00, 0x00,
  0xff, 0xff, 0xff, 0xff, 0x14, 0x00, 0x00, 0x00, 0x09, 0x00, 0x00, 0x00,
  0x03, 0x00, 0x00, 0x00, 0x23, 0x00, 0x00, 0x00, 0x73, 0x65, 0x71, 0x75,
  0x65, 0x6e, 0x74, 0x69, 0x61, 0x6c, 0x5f, 0x34, 0x33, 0x2f, 0x7a, 0x65,
  0x72, 0x6f, 0x5f, 0x70, 0x61, 0x64, 0x64, 0x69, 0x6e, 0x67, 0x32, 0x64,
  0x5f, 0x31, 0x30, 0x2f, 0x50, 0x61, 0x64, 0x00, 0x40, 0xe6, 0xff, 0xff,
  0x08, 0x00, 0x00, 0x00, 0x0c, 0x00, 0x00, 0x00, 0x01, 0x00, 0x00, 0x00,
  0x3f, 0xfd, 0x1d, 0x3d, 0x01, 0x00, 0x00, 0x00, 0x41, 0x00, 0x00, 0x00,
  0x00, 0x00, 0x00, 0x00, 0x00, 0x00, 0x0a, 0x00, 0x0c, 0x00, 0x00, 0x00,
  0x04, 0x00, 0x08, 0x00, 0x0a, 0x00, 0x00, 0x00, 0x10, 0x00, 0x00, 0x00,
  0x04, 0x00, 0x00, 0x00, 0x01, 0x00, 0x00, 0x00, 0x0d, 0x00, 0x00, 0x00,
  0x01, 0x00, 0x00, 0x00, 0x00, 0x00, 0x00, 0x00, 0x0c, 0x00, 0x10, 0x00,
  0x0b, 0x00, 0x00, 0x00, 0x0c, 0x00, 0x04, 0x00, 0x0c, 0x00, 0x00, 0x00,
  0x72, 0x00, 0x00, 0x00, 0x00, 0x00, 0x00, 0x72, 0x01, 0x00, 0x00, 0x00,
  0x14, 0x00, 0x1c, 0x00, 0x08, 0x00, 0x07, 0x00, 0x0c, 0x00, 0x10, 0x00,
  0x14, 0x00, 0x00, 0x00, 0x00, 0x00, 0x18, 0x00, 0x14, 0x00, 0x00, 0x00,
  0x00, 0x00, 0x00, 0x09, 0x14, 0x00, 0x00, 0x00, 0x0e, 0x00, 0x00, 0x00,
  0x34, 0x00, 0x00, 0x00, 0x44, 0x00, 0x00, 0x00, 0x18, 0x00, 0x00, 0x00,
  0x04, 0x00, 0x00, 0x00, 0x01, 0x00, 0x00, 0x00, 0x14, 0x00, 0x00, 0x00,
  0x05, 0x00, 0x00, 0x00, 0x03, 0x00, 0x00, 0x00, 0x04, 0x00, 0x00, 0x00,
  0xff, 0xff, 0xff, 0xff, 0x14, 0x00, 0x00, 0x00, 0x05, 0x00, 0x00, 0x00,
  0x03, 0x00, 0x00, 0x00, 0x0c, 0x00, 0x00, 0x00, 0x74, 0x66, 0x6c, 0x2e,
  0x71, 0x75, 0x61, 0x6e, 0x74, 0x69, 0x7a, 0x65, 0x00, 0x00, 0x00, 0x00,
  0x10, 0xe7, 0xff, 0xff, 0x08, 0x00, 0x00, 0x00, 0x0c, 0x00, 0x00, 0x00,
  0x01, 0x00, 0x00, 0x00, 0x3f, 0xfd, 0x1d, 0x3d, 0x01, 0x00, 0x00, 0x00,
  0x41, 0x00, 0x00, 0x00, 0x00, 0x00, 0x00, 0x00, 0x00, 0x00, 0x00, 0x00,
  0x4e, 0xe6, 0xff, 0xff, 0x04, 0x00, 0x00, 0x00, 0x28, 0x00, 0x00, 0x00,
  0xa7, 0xff, 0xff, 0xff, 0x27, 0xfe, 0xff, 0xff, 0x2d, 0x00, 0x00, 0x00,
  0x6f, 0xff, 0xff, 0xff, 0x59, 0xfa, 0xff, 0xff, 0xdb, 0xfb, 0xff, 0xff,
  0x22, 0x05, 0x00, 0x00, 0x41, 0x07, 0x00, 0x00, 0x25, 0xff, 0xff, 0xff,
  0x31, 0xff, 0xff, 0xff, 0x4e, 0xe6, 0xff, 0xff, 0x00, 0x00, 0x00, 0x02,
  0x10, 0x00, 0x00, 0x00, 0x0d, 0x00, 0x00, 0x00, 0x10, 0x00, 0x00, 0x00,
  0x24, 0x00, 0x00, 0x00, 0x01, 0x00, 0x00, 0x00, 0x0a, 0x00, 0x00, 0x00,
  0x10, 0x00, 0x00, 0x00, 0x70, 0x72, 0x65, 0x64, 0x69, 0x63, 0x74, 0x69,
  0x6f, 0x6e, 0x73, 0x2f, 0x62, 0x69, 0x61, 0x73, 0x00, 0x00, 0x00, 0x00,
  0xa0, 0xe7, 0xff, 0xff, 0x08, 0x00, 0x00, 0x00, 0x0c, 0x00, 0x00, 0x00,
  0x01, 0x00, 0x00, 0x00, 0xfc, 0xbc, 0xdb, 0x39, 0x01, 0x00, 0x00, 0x00,
  0x00, 0x00, 0x00, 0x00, 0x00, 0x00, 0x00, 0x00, 0xda, 0xe6, 0xff, 0xff,
  0x04, 0x00, 0x00, 0x00, 0x20, 0x03, 0x00, 0x00, 0xb4, 0x16, 0x11, 0xf4,
  0xe1, 0x31, 0x21, 0xd9, 0xf7, 0x06, 0x1d, 0x0f, 0xfd, 0x00, 0xe2, 0xcb,
  0x98, 0x0f, 0x0f, 0xc7, 0xb3, 0x28, 0x1c, 0xc2, 0xfc, 0x08, 0x1e, 0x03,
  0x04, 0x07, 0x08, 0xcb, 0xb1, 0x12, 0x08, 0xdd, 0xb6, 0x22, 0x0c, 0xc9,
  0xf6, 0x10, 0x19, 0x02, 0x0b, 0x02, 0x03, 0xbf, 0xb5, 0x0c, 0x0b, 0xd9,
  0xdc, 0x25, 0x0e, 0xe3, 0x0c, 0x0d, 0x12, 0xee, 0x0e, 0x00, 0x00, 0xca,
  0x0e, 0x0a, 0xd6, 0x13, 0xdd, 0xfb, 0x24, 0x09, 0xa8, 0xab, 0xa4, 0x0e,
  0x03, 0xc8, 0x1a, 0x17, 0x07, 0x08, 0x09, 0x18, 0xfa, 0x00, 0x1d, 0x13,
  0xbf, 0xda, 0xe0, 0x13, 0xf2, 0xb1, 0x10, 0x09, 0x0b, 0xf3, 0x19, 0x17,
  0x0a, 0xf7, 0x14, 0x18, 0xc6, 0xd8, 0xdd, 0x05, 0xd6, 0xbc, 0x15, 0x14,
  0x0a, 0xf6, 0x13, 0x1f, 0xfe, 0xfa, 0x05, 0x18, 0xb0, 0xe4, 0xd7, 0x09,
  0xd8, 0x9c, 0x18, 0x0f, 0x1c, 0xec, 0x05, 0x22, 0x0b, 0xd5, 0x0c, 0x1f,
  0xa6, 0xab, 0xba, 0x0c, 0xdd, 0xb0, 0x2e, 0x1c, 0xf6, 0xee, 0x30, 0xfc,
  0x10, 0xea, 0x09, 0x15, 0x06, 0x03, 0x16, 0xf1, 0xf5, 0x09, 0x01, 0xf6,
  0xba, 0x08, 0x21, 0xd5, 0xf0, 0x3a, 0x19, 0xfe, 0xfb, 0xfa, 0x0f, 0x0d,
  0x24, 0x05, 0xcd, 0xdf, 0xcf, 0x0e, 0x1e, 0xde, 0x01, 0x29, 0x1a, 0x0b,
  0xef, 0xf3, 0x02, 0x0a, 0x0a, 0x08, 0xe7, 0xee, 0xe1, 0x09, 0x18, 0xe7,
  0xf8, 0x20, 0x0c, 0x0c, 0xe6, 0xf9, 0xfd, 0x06, 0x09, 0x04, 0xed, 0xee,
  0xf3, 0xef, 0x12, 0xfd, 0x0d, 0x10, 0x08, 0x17, 0xf4, 0xf4, 0x00, 0x01,
  0xfa, 0xff, 0x07, 0xff, 0x9b, 0xda, 0x35, 0xc0, 0x18, 0x14, 0xfe, 0xe8,
  0x08, 0x13, 0x1d, 0xa0, 0xa3, 0x0f, 0xcd, 0x90, 0x0b, 0x19, 0xd9, 0x18,
  0xfc, 0xe7, 0x1f, 0xfc, 0xfe, 0xe8, 0xc3, 0x1c, 0xd6, 0xe1, 0x13, 0x06,
  0x0f, 0x11, 0xd1, 0x10, 0xfe, 0x16, 0x1c, 0xf4, 0xfa, 0xe4, 0xeb, 0x0b,
  0xdc, 0xf1, 0x14, 0x12, 0x0f, 0x0f, 0xbc, 0x17, 0xf6, 0x06, 0x0e, 0xe7,
  0xf0, 0xe3, 0xdd, 0x0f, 0xeb, 0xed, 0x15, 0x10, 0x0e, 0x0e, 0xff, 0x04,
  0xe7, 0x22, 0x0e, 0x9f, 0x0c, 0x08, 0x10, 0x09, 0x07, 0xfe, 0x05, 0x10,
  0x12, 0x06, 0xd5, 0x16, 0xc8, 0xec, 0x26, 0xf0, 0x92, 0xc8, 0x81, 0x14,
  0xfe, 0xa6, 0x1e, 0x1f, 0x09, 0xe7, 0xd8, 0x18, 0x07, 0xcf, 0xf9, 0x06,
  0x0f, 0x0a, 0x18, 0xdc, 0xeb, 0x06, 0x15, 0x07, 0x0d, 0xdc, 0xea, 0x14,
  0x0d, 0xd0, 0xfc, 0x0d, 0x0f, 0x07, 0x15, 0xca, 0xdd, 0x0b, 0x1b, 0x12,
  0x0b, 0xe8, 0xe4, 0x1b, 0x06, 0xd5, 0xee, 0x10, 0x0a, 0x0d, 0x14, 0xcc,
  0xe6, 0x07, 0x19, 0x0f, 0x1c, 0xe8, 0xe3, 0x1d, 0x0a, 0xef, 0xeb, 0x13,
  0x09, 0x06, 0x00, 0xee, 0xd9, 0x00, 0x2a, 0x18, 0x05, 0xfa, 0x22, 0xf5,
  0x03, 0x12, 0xff, 0xe8, 0x09, 0x0f, 0x1d, 0x03, 0xd7, 0x0e, 0x0a, 0x12,
  0x05, 0xfb, 0xdc, 0xf3, 0x03, 0x24, 0xf9, 0xf3, 0x10, 0x0d, 0x20, 0xd5,
  0xf1, 0x04, 0x0f, 0xfa, 0x00, 0xf9, 0xd9, 0xd5, 0x08, 0x25, 0xfe, 0xea,
  0x0e, 0x0a, 0x1d, 0xd1, 0xf0, 0x08, 0x19, 0x10, 0xf4, 0x03, 0xdc, 0xdc,
  0x01, 0x20, 0xf8, 0xf2, 0x0b, 0x15, 0x1d, 0xce, 0xf6, 0x05, 0x11, 0x0b,
  0x06, 0x05, 0xf4, 0xf4, 0x0a, 0x27, 0xfa, 0xd2, 0x0d, 0x0e, 0x13, 0xec,
  0xf4, 0x01, 0x1d, 0x06, 0x03, 0xfd, 0x08, 0xf5, 0x03, 0x06, 0x03, 0xd9,
  0x07, 0x10, 0x1a, 0x06, 0xfc, 0x0a, 0x0a, 0x0a, 0x05, 0x09, 0x03, 0xf5,
  0x04, 0xdf, 0x11, 0x11, 0xff, 0xea, 0xf5, 0x10, 0x16, 0x03, 0xf9, 0x05,
  0xf3, 0x05, 0x0f, 0xcc, 0x01, 0xde, 0x17, 0x15, 0xed, 0xd5, 0xd8, 0x0f,
  0x0f, 0x09, 0xd5, 0x09, 0xfa, 0x0a, 0x0d, 0xdb, 0xfe, 0xd0, 0x0b, 0x16,
  0xde, 0xde, 0xda, 0x0e, 0x17, 0x05, 0xd8, 0x08, 0xf1, 0x0d, 0x11, 0xc2,
  0xf1, 0x04, 0x12, 0xda, 0xea, 0xdf, 0xea, 0x0f, 0x11, 0xff, 0xe8, 0xf0,
  0x0e, 0x09, 0xce, 0x0a, 0x08, 0xcf, 0x0f, 0x2b, 0xf8, 0xc5, 0xd0, 0xfe,
  0x14, 0xfd, 0x0d, 0x12, 0xf6, 0xe9, 0xeb, 0x04, 0x0b, 0xf9, 0xc2, 0xf9,
  0x0e, 0xed, 0x0e, 0x08, 0xef, 0x06, 0xed, 0xdc, 0xfa, 0xc6, 0xf9, 0xfe,
  0x15, 0xf5, 0xc5, 0xed, 0x08, 0xe3, 0x0a, 0x0b, 0xce, 0x0b, 0xe4, 0xc0,
  0x06, 0xc7, 0xeb, 0x11, 0x10, 0xe7, 0xba, 0xe3, 0x07, 0xdd, 0x0d, 0x0b,
  0xe5, 0x05, 0xf5, 0xbd, 0xfc, 0xc1, 0x0c, 0x0b, 0x20, 0xe6, 0xae, 0xba,
  0x09, 0xe0, 0x05, 0xfa, 0xe0, 0x03, 0xe7, 0xc0, 0x16, 0xe5, 0xe6, 0x23,
  0x20, 0xee, 0xd1, 0x09, 0x04, 0xd1, 0xf5, 0xeb, 0x13, 0x05, 0x22, 0xfb,
  0x09, 0xca, 0x01, 0xf6, 0x09, 0xcf, 0xfb, 0x18, 0x0c, 0x09, 0xe9, 0xe8,
  0x17, 0x06, 0x0d, 0x04, 0xf7, 0xde, 0x0e, 0xd7, 0x0d, 0xdb, 0x0a, 0x20,
  0x07, 0x0b, 0xde, 0xff, 0x0a, 0x0c, 0xea, 0x02, 0xf2, 0xdf, 0x09, 0xe3,
  0x07, 0xd6, 0x01, 0x1f, 0x02, 0x13, 0xe3, 0x04, 0x14, 0x08, 0xe6, 0x01,
  0xe7, 0xf6, 0x0f, 0xdc, 0xf8, 0x0f, 0x02, 0x19, 0xff, 0x10, 0xf4, 0x08,
  0x0f, 0x02, 0xe2, 0xee, 0xf2, 0xf9, 0xf4, 0xdc, 0xfc, 0x18, 0xf7, 0x0c,
  0x00, 0x10, 0x09, 0xfe, 0x1b, 0x0c, 0xc8, 0xff, 0x08, 0x0d, 0x0c, 0x08,
  0x0a, 0xc1, 0xf9, 0x17, 0x03, 0x0b, 0xf3, 0xf4, 0x0c, 0x05, 0x11, 0x08,
  0xf4, 0x04, 0x10, 0xca, 0x10, 0xdd, 0xfb, 0x1f, 0xff, 0x0b, 0xe7, 0xf8,
  0x02, 0x0d, 0xf4, 0x0c, 0xfb, 0x09, 0x05, 0xd6, 0x09, 0xe1, 0xed, 0x1b,
  0xf6, 0x12, 0xec, 0xf8, 0x12, 0x0a, 0xe7, 0x08, 0xf6, 0x0c, 0x0b, 0xb7,
  0xf0, 0x1a, 0xfd, 0x09, 0x05, 0x11, 0x00, 0x02, 0x0e, 0x02, 0xe6, 0x02,
  0xfc, 0x13, 0xe6, 0xdf, 0xe4, 0xfc, 0xfa, 0x00, 0xff, 0x0c, 0xfc, 0x01,
  0x1b, 0x08, 0xd5, 0x10, 0xd2, 0xe9, 0xff, 0xff, 0x00, 0x00, 0x00, 0x09,
  0x10, 0x00, 0x00, 0x00, 0x0c, 0x00, 0x00, 0x00, 0x14, 0x00, 0x00, 0x00,
  0x38, 0x00, 0x00, 0x00, 0x02, 0x00, 0x00, 0x00, 0x0a, 0x00, 0x00, 0x00,
  0x50, 0x00, 0x00, 0x00, 0x20, 0x00, 0x00, 0x00, 0x73, 0x65, 0x71, 0x75,
  0x65, 0x6e, 0x74, 0x69, 0x61, 0x6c, 0x5f, 0x34, 0x33, 0x2f, 0x70, 0x72,
  0x65, 0x64, 0x69, 0x63, 0x74, 0x69, 0x6f, 0x6e, 0x73, 0x2f, 0x4d, 0x61,
  0x74, 0x4d, 0x75, 0x6c, 0x00, 0x00, 0x00, 0x00, 0x38, 0xeb, 0xff, 0xff,
  0x08, 0x00, 0x00, 0x00, 0x0c, 0x00, 0x00, 0x00, 0x01, 0x00, 0x00, 0x00,
  0xbc, 0xcd, 0x59, 0x3c, 0x01, 0x00, 0x00, 0x00, 0x00, 0x00, 0x00, 0x00,
  0x00, 0x00, 0x00, 0x00, 0x00, 0x00, 0x00, 0x00, 0x76, 0xea, 0xff, 0xff,
  0x04, 0x00, 0x00, 0x00, 0x40, 0x00, 0x00, 0x00, 0xf6, 0x06, 0x00, 0x00,
  0xd8, 0x05, 0x00, 0x00, 0xa5, 0x04, 0x00, 0x00, 0x58, 0x03, 0x00, 0x00,
  0x26, 0xfb, 0xff, 0xff, 0x90, 0x08, 0x00, 0x00, 0xc0, 0x06, 0x00, 0x00,
  0xf2, 0x01, 0x00, 0x00, 0x62, 0xff, 0xff, 0xff, 0x1d, 0x04, 0x00, 0x00,
  0xb5, 0x02, 0x00, 0x00, 0xcc, 0x03, 0x00, 0x00, 0x2b, 0x03, 0x00, 0x00,
  0x03, 0xff, 0xff, 0xff, 0xfd, 0x04, 0x00, 0x00, 0xab, 0x06, 0x00, 0x00,
  0x8e, 0xea, 0xff, 0xff, 0x00, 0x00, 0x00, 0x02, 0x10, 0x00, 0x00, 0x00,
  0x0b, 0x00, 0x00, 0x00, 0x10, 0x00, 0x00, 0x00, 0x20, 0x00, 0x00, 0x00,
  0x01, 0x00, 0x00, 0x00, 0x10, 0x00, 0x00, 0x00, 0x0f, 0x00, 0x00, 0x00,
  0x63, 0x6f, 0x6e, 0x76, 0x32, 0x64, 0x5f, 0x31, 0x34, 0x32, 0x2f, 0x62,
  0x69, 0x61, 0x73, 0x00, 0xdc, 0xeb, 0xff, 0xff, 0x08, 0x00, 0x00, 0x00,
  0x48, 0x00, 0x00, 0x00, 0x10, 0x00, 0x00, 0x00, 0x38, 0xa4, 0x0b, 0x39,
  0x08, 0x63, 0x30, 0x39, 0x9e, 0xda, 0x56, 0x39, 0xc8, 0x1f, 0x2e, 0x39,
  0xfe, 0x30, 0xec, 0x38, 0x8b, 0xf9, 0xe9, 0x38, 0x5f, 0x16, 0x2a, 0x39,
  0x28, 0x0e, 0x18, 0x39, 0x24, 0x3c, 0x04, 0x39, 0x26, 0xb6, 0xb6, 0x38,
  0x11, 0x7c, 0x23, 0x39, 0x15, 0x4f, 0x5b, 0x39, 0xb1, 0xa3, 0x47, 0x39,
  0xda, 0x06, 0xdc, 0x38, 0x14, 0x27, 0x08, 0x39, 0x7a, 0x71, 0x05, 0x39,
  0x10, 0x00, 0x00, 0x00, 0x00, 0x00, 0x00, 0x00, 0x00, 0x00, 0x00, 0x00,
  0x00, 0x00, 0x00, 0x00, 0x00, 0x00, 0x00, 0x00, 0x00, 0x00, 0x00, 0x00,
  0x00, 0x00, 0x00, 0x00, 0x00, 0x00, 0x00, 0x00, 0x00, 0x00, 0x00, 0x00,
  0x00, 0x00, 0x00, 0x00, 0x00, 0x00, 0x00, 0x00, 0x00, 0x00, 0x00, 0x00,
  0x00, 0x00, 0x00, 0x00, 0x00, 0x00, 0x00, 0x00, 0x00, 0x00, 0x00, 0x00,
  0x00, 0x00, 0x00, 0x00, 0x00, 0x00, 0x00, 0x00, 0x00, 0x00, 0x00, 0x00,
  0x00, 0x00, 0x00, 0x00, 0x00, 0x00, 0x00, 0x00, 0x00, 0x00, 0x00, 0x00,
  0x00, 0x00, 0x00, 0x00, 0x00, 0x00, 0x00, 0x00, 0x00, 0x00, 0x00, 0x00,
  0x00, 0x00, 0x00, 0x00, 0x00, 0x00, 0x00, 0x00, 0x00, 0x00, 0x00, 0x00,
  0x00, 0x00, 0x00, 0x00, 0x00, 0x00, 0x00, 0x00, 0x00, 0x00, 0x00, 0x00,
  0x00, 0x00, 0x00, 0x00, 0x00, 0x00, 0x00, 0x00, 0x00, 0x00, 0x00, 0x00,
  0xca, 0xeb, 0xff, 0xff, 0x04, 0x00, 0x00, 0x00, 0x00, 0x05, 0x00, 0x00,
  0xef, 0xcd, 0xd0, 0x29, 0xe1, 0x0d, 0xf8, 0xf5, 0x23, 0x00, 0x3c, 0x2d,
  0x19, 0xda, 0xd7, 0x27, 0xe5, 0xe3, 0xf9, 0x14, 0xcc, 0x02, 0xf7, 0xc8,
  0x1f, 0x00, 0x06, 0x22, 0x26, 0xb7, 0xe5, 0x3f, 0xda, 0xea, 0xe2, 0x25,
  0xd6, 0xf7, 0xf4, 0xcf, 0x2e, 0x27, 0x1f, 0x31, 0x11, 0xcf, 0xc2, 0x39,
  0xed, 0xde, 0xe0, 0x37, 0xcf, 0xdd, 0xeb, 0xd1, 0x14, 0xfa, 0x47, 0x34,
  0x62, 0xdc, 0xeb, 0x1e, 0xd8, 0x22, 0xf0, 0xf1, 0xce, 0xe1, 0xfd, 0xae,
  0x42, 0xe8, 0x3e, 0x28, 0x52, 0x81, 0xd2, 0x2e, 0xcf, 0x14, 0xde, 0xfc,
  0xf2, 0xe6, 0xc1, 0x1f, 0x1a, 0xf4, 0xde, 0x16, 0x0a, 0x35, 0x26, 0x2b,
  0xe6, 0x0d, 0xc2, 0xe7, 0xf0, 0x12, 0xd3, 0x08, 0x25, 0xdb, 0x10, 0xf8,
  0x15, 0x0e, 0x17, 0x02, 0xf1, 0xf9, 0xd9, 0xf6, 0xf8, 0x05, 0x01, 0x17,
  0x2b, 0xf9, 0xf2, 0x20, 0xfd, 0x27, 0x19, 0xfe, 0xba, 0xcf, 0x23, 0xfe,
  0xde, 0xf0, 0xe6, 0x05, 0x1e, 0xda, 0xfa, 0xfe, 0xfe, 0x0b, 0xde, 0x02,
  0x81, 0xb6, 0xed, 0xd9, 0xec, 0x05, 0xe1, 0xd1, 0xf8, 0xc0, 0xcb, 0xb4,
  0x04, 0xef, 0xf7, 0xd0, 0x30, 0x07, 0x20, 0x1b, 0x10, 0x19, 0x2a, 0x0b,
  0x0a, 0xf0, 0x1b, 0xce, 0x00, 0xfa, 0x21, 0xdb, 0x24, 0xce, 0x09, 0x09,
  0x03, 0xfb, 0x12, 0x07, 0xe8, 0x06, 0x06, 0xe6, 0xfe, 0x06, 0x29, 0xeb,
  0x11, 0xe3, 0x20, 0xef, 0x0f, 0x14, 0xfd, 0x0c, 0xdf, 0x1a, 0x23, 0xef,
  0x05, 0xf0, 0x08, 0xd1, 0x0e, 0xc5, 0x1d, 0xdf, 0x12, 0x07, 0x01, 0x10,
  0xfb, 0xea, 0x07, 0xfc, 0x05, 0xfa, 0xdd, 0xdc, 0xea, 0xd8, 0x81, 0xa8,
  0xe2, 0xee, 0xed, 0xf2, 0xff, 0xbe, 0xe8, 0xff, 0xb8, 0xdc, 0xec, 0xe8,
  0xfa, 0x0c, 0xdd, 0x0b, 0xf3, 0x0c, 0x16, 0xdd, 0x52, 0xea, 0x37, 0x28,
  0x22, 0x8d, 0xff, 0x0f, 0x17, 0x17, 0xf7, 0x06, 0xe2, 0xf2, 0x30, 0xdc,
  0x2a, 0xe6, 0x12, 0x2b, 0x2c, 0x8c, 0xf0, 0x0b, 0x05, 0xbf, 0xf3, 0xef,
  0xd1, 0xd7, 0x11, 0xd4, 0x39, 0xf2, 0x3e, 0x23, 0x30, 0xa3, 0xf7, 0x0b,
  0x14, 0xe5, 0xd8, 0x1e, 0xc9, 0xec, 0x4a, 0xc8, 0x10, 0x01, 0x2c, 0x28,
  0x1e, 0xa6, 0x08, 0x19, 0xf4, 0xfd, 0xce, 0xe7, 0xff, 0xf3, 0x35, 0xd7,
  0x20, 0x03, 0x20, 0x12, 0x3d, 0x81, 0x13, 0xeb, 0x76, 0x16, 0xe8, 0x17,
  0x23, 0xb8, 0x2a, 0xe9, 0x20, 0xfe, 0x58, 0xf3, 0x10, 0xf2, 0xc9, 0xf5,
  0x4a, 0xe2, 0x05, 0x1f, 0x12, 0xdf, 0x6c, 0xab, 0xf0, 0x18, 0x34, 0xfc,
  0x19, 0x0b, 0xb8, 0xf2, 0x61, 0xba, 0x18, 0x3a, 0x08, 0xca, 0x63, 0xc9,
  0x09, 0x10, 0x13, 0x1c, 0x03, 0xe6, 0xca, 0x10, 0x7a, 0xdd, 0x0f, 0x42,
  0xf4, 0xbc, 0x5b, 0xbd, 0xf2, 0x03, 0x1d, 0x22, 0x3e, 0x07, 0xd4, 0xea,
  0x7f, 0xd4, 0x27, 0x23, 0x39, 0xa0, 0x73, 0xc9, 0xfb, 0x05, 0x03, 0x03,
  0x3c, 0xd1, 0xd8, 0xef, 0xe3, 0x37, 0x1b, 0xd2, 0xf1, 0xf4, 0xbb, 0xc1,
  0x50, 0xfc, 0x81, 0xb4, 0x22, 0xfd, 0x5f, 0xd3, 0xdf, 0xf9, 0x27, 0xcb,
  0x28, 0xf9, 0x3b, 0x3a, 0x74, 0xd5, 0x99, 0xc2, 0xc8, 0x2e, 0x42, 0xf6,
  0xe8, 0xf4, 0x06, 0xd3, 0x1a, 0x04, 0x2f, 0x2c, 0x60, 0xdd, 0xa6, 0xd9,
  0xd7, 0x49, 0x0f, 0xad, 0xef, 0x01, 0x10, 0xaa, 0x07, 0x2f, 0x40, 0x4d,
  0x57, 0xcd, 0xd1, 0xcb, 0xd4, 0x24, 0xf6, 0x90, 0x0f, 0xad, 0xdf, 0x05,
  0xec, 0x4d, 0x31, 0x61, 0x2e, 0xe3, 0x97, 0xd0, 0xb6, 0x65, 0x42, 0xc4,
  0xc9, 0xd2, 0x11, 0x81, 0xe6, 0xdd, 0x44, 0x29, 0xd4, 0xf6, 0xd7, 0xf9,
  0xd2, 0xe2, 0x0e, 0x16, 0xd3, 0xbc, 0xc6, 0xe4, 0xed, 0xf2, 0xfa, 0xd3,
  0xbf, 0xc1, 0xdf, 0x11, 0xeb, 0xd6, 0x1b, 0xe2, 0xb6, 0xe5, 0x04, 0x10,
  0xde, 0x0f, 0xf7, 0x10, 0xdf, 0xb4, 0x16, 0x11, 0xec, 0x0b, 0x12, 0x03,
  0xf0, 0x09, 0x00, 0x08, 0xdf, 0x19, 0xdd, 0x1c, 0x2d, 0xd5, 0x10, 0x09,
  0x21, 0x1a, 0x3f, 0xf6, 0xf8, 0x29, 0xcb, 0xf7, 0xb7, 0x28, 0xde, 0xfc,
  0x20, 0xea, 0xfd, 0xf7, 0x22, 0x0d, 0x38, 0x21, 0xec, 0x09, 0xd7, 0x4a,
  0x14, 0x30, 0xe3, 0xd4, 0xe9, 0x1d, 0x0e, 0xf6, 0x2d, 0xde, 0x0b, 0xce,
  0xe4, 0x07, 0x24, 0x32, 0x09, 0x22, 0xdf, 0xd0, 0xbe, 0x04, 0x1c, 0xeb,
  0xf8, 0x05, 0x0d, 0xf7, 0x0a, 0xed, 0x37, 0x26, 0xd3, 0xf0, 0x88, 0xb5,
  0xc2, 0x02, 0x36, 0xf6, 0xf5, 0x0a, 0x0a, 0xfa, 0x33, 0x06, 0x3b, 0x03,
  0xe5, 0xd8, 0x81, 0xd6, 0xde, 0xf6, 0x34, 0x04, 0x22, 0xf4, 0x24, 0xed,
  0x0e, 0xe0, 0x49, 0xe7, 0xc1, 0xcc, 0x82, 0xe2, 0xb3, 0xcc, 0x25, 0xef,
  0x2e, 0xdd, 0x0f, 0x04, 0x45, 0xde, 0x05, 0xc1, 0xf8, 0xdb, 0x13, 0x39,
  0x22, 0x41, 0x02, 0x2e, 0x24, 0xf6, 0xbe, 0xdc, 0x3e, 0xb9, 0xf1, 0xe3,
  0xf8, 0xe3, 0x27, 0x31, 0x39, 0x5c, 0xf9, 0x13, 0x1a, 0xe8, 0xc2, 0xe4,
  0x5c, 0xaf, 0xeb, 0xee, 0xb0, 0xf0, 0x2e, 0x35, 0x30, 0x51, 0xd3, 0x0e,
  0x2a, 0xe3, 0xb6, 0x03, 0x4f, 0xaa, 0xc6, 0xdc, 0xd0, 0xed, 0x62, 0x1a,
  0x3b, 0x62, 0xe9, 0x2a, 0x13, 0xd4, 0xd7, 0xf2, 0x5e, 0xec, 0xf4, 0xdf,
  0xad, 0x0d, 0x54, 0x28, 0x55, 0x7f, 0xb6, 0x1d, 0x27, 0x13, 0xd7, 0xf6,
  0xf2, 0x09, 0x58, 0x9a, 0xe9, 0xb0, 0x0a, 0x26, 0xff, 0x58, 0xae, 0x4a,
  0x16, 0x23, 0x47, 0xdd, 0xdd, 0x0a, 0x3c, 0xa2, 0xf5, 0xde, 0xe8, 0x4c,
  0x31, 0x3a, 0xd0, 0xef, 0xed, 0x07, 0x01, 0xe6, 0xf0, 0xdc, 0x1a, 0x86,
  0xc9, 0xe4, 0xcd, 0x47, 0x3c, 0x43, 0xe2, 0x10, 0xcf, 0x40, 0x06, 0x07,
  0xf5, 0xfa, 0x19, 0x9e, 0x0b, 0xe5, 0xad, 0x32, 0x0b, 0x7f, 0xc2, 0x38,
  0xe6, 0x2d, 0xe7, 0xd9, 0xe1, 0x16, 0x58, 0x9f, 0xe9, 0xcb, 0xac, 0x2b,
  0x35, 0x74, 0x98, 0x44, 0xc8, 0x6f, 0x4b, 0xe7, 0x3c, 0xae, 0x24, 0xe8,
  0xd0, 0xf2, 0x7e, 0x0c, 0x46, 0xff, 0xc6, 0xf7, 0xf2, 0x0e, 0x17, 0xbe,
  0x44, 0xf0, 0xfb, 0xef, 0xda, 0xe9, 0x48, 0x2b, 0x5a, 0x0c, 0xcb, 0xed,
  0x02, 0xfb, 0xdf, 0xd1, 0x47, 0xfc, 0x08, 0xec, 0xfa, 0x19, 0x46, 0x32,
  0x4f, 0x27, 0xc8, 0xdd, 0x04, 0xf1, 0xe8, 0xd5, 0x3d, 0xd3, 0x09, 0xe1,
  0xff, 0xff, 0x5f, 0x1f, 0x5c, 0x19, 0xae, 0xe8, 0x11, 0x10, 0xe1, 0xe1,
  0x50, 0xcc, 0x05, 0x01, 0xc5, 0x28, 0x35, 0x2b, 0x7f, 0x31, 0xc5, 0xf4,
  0xd4, 0x21, 0xe3, 0xd0, 0xe4, 0x0f, 0xe2, 0xfd, 0xfe, 0xf7, 0xbd, 0xf7,
  0x13, 0xdf, 0x06, 0xed, 0xff, 0xfc, 0x39, 0x21, 0xe6, 0x04, 0xda, 0x07,
  0x00, 0xf9, 0xef, 0x13, 0xea, 0xd2, 0x0a, 0xef, 0xe9, 0xe8, 0x3b, 0x11,
  0xeb, 0x04, 0xcd, 0x0e, 0xf2, 0x08, 0xfa, 0x0f, 0x03, 0xd1, 0x04, 0xf3,
  0xee, 0x08, 0x24, 0x24, 0xe3, 0x18, 0xd2, 0x0b, 0x12, 0x0a, 0xf7, 0xeb,
  0x00, 0xba, 0xf0, 0xfb, 0xde, 0x01, 0x47, 0x1d, 0xcd, 0x26, 0xcf, 0x14,
  0x07, 0x10, 0xde, 0x01, 0xf8, 0x81, 0x06, 0xf9, 0xf3, 0xe7, 0x30, 0x2b,
  0xf7, 0xe2, 0xd1, 0x0e, 0x32, 0x1d, 0x81, 0xf5, 0xfd, 0xd6, 0xe6, 0xe0,
  0x39, 0xf8, 0x32, 0xf9, 0xe7, 0x05, 0xe3, 0x1f, 0x02, 0x18, 0xc2, 0x1e,
  0xd9, 0xe6, 0xfa, 0xcd, 0xf3, 0x27, 0x03, 0x0b, 0xed, 0xf8, 0xf0, 0x0c,
  0x0a, 0xfb, 0xaa, 0x07, 0xdf, 0xe2, 0x03, 0xe0, 0xf4, 0x27, 0x08, 0x00,
  0xf0, 0xf4, 0x06, 0x04, 0x13, 0xdb, 0xb8, 0x02, 0xff, 0xe2, 0x0e, 0xd8,
  0xfb, 0x2c, 0xf0, 0x0f, 0xf8, 0xd3, 0xee, 0x21, 0xe6, 0xfe, 0xd8, 0xfc,
  0xe3, 0xea, 0xfa, 0xd1, 0xdb, 0x2b, 0x11, 0x17, 0x4f, 0xf5, 0x17, 0x26,
  0x34, 0xc4, 0x09, 0xfe, 0xfd, 0x2a, 0xdb, 0xf4, 0x0d, 0x46, 0xf7, 0xd8,
  0x3a, 0xd7, 0x2a, 0xff, 0x1c, 0xd1, 0x03, 0x19, 0xf6, 0x2d, 0xf4, 0xcc,
  0xee, 0x23, 0xe3, 0xee, 0x43, 0xed, 0x26, 0xef, 0x2c, 0xc1, 0x25, 0x10,
  0x13, 0x57, 0x14, 0xdd, 0xf8, 0x41, 0xde, 0xcd, 0x40, 0xf6, 0x37, 0xf9,
  0x1f, 0xc2, 0x49, 0x2a, 0xeb, 0x7f, 0xe0, 0xe6, 0xf6, 0x42, 0xe3, 0xa9,
  0x65, 0xdc, 0x63, 0xbf, 0x40, 0x00, 0x5c, 0x70, 0xee, 0x1e, 0xef, 0xe8,
  0xf4, 0x40, 0xfe, 0xde, 0xf2, 0xb2, 0x22, 0xe4, 0xb9, 0xf8, 0x1d, 0x14,
  0x20, 0xe0, 0x39, 0x2c, 0x14, 0x02, 0xd8, 0x24, 0x08, 0xdb, 0xef, 0x06,
  0xcb, 0x0f, 0xf2, 0xc7, 0x1b, 0x0f, 0x14, 0x27, 0x2b, 0xda, 0x0a, 0x26,
  0x08, 0xf3, 0x02, 0x0e, 0xcf, 0x2a, 0x15, 0xc9, 0x33, 0xf2, 0x0a, 0x35,
  0x0d, 0xd2, 0xde, 0x20, 0x28, 0x0e, 0x0a, 0x31, 0x99, 0x11, 0xf0, 0xab,
  0x48, 0x06, 0x14, 0x2e, 0x0d, 0xa7, 0xdf, 0x31, 0x00, 0xd9, 0x3c, 0xd4,
  0x81, 0xe8, 0xff, 0x9a, 0x2c, 0x26, 0x51, 0x25, 0x1b, 0x92, 0xf5, 0x2a,
  0xda, 0xd8, 0xf2, 0x17, 0xae, 0x22, 0xba, 0xe3, 0x04, 0xf1, 0x34, 0x23,
  0xf6, 0x15, 0xed, 0x46, 0x06, 0x15, 0xee, 0x37, 0xa8, 0x1b, 0x81, 0xc7,
  0x14, 0xf0, 0x1e, 0x32, 0x42, 0xde, 0xfa, 0x10, 0xe5, 0x76, 0xf0, 0xe9,
  0xe4, 0x06, 0xa2, 0xcf, 0xe7, 0xee, 0x25, 0x2a, 0x45, 0xda, 0xed, 0x0d,
  0xf2, 0x0a, 0x28, 0x91, 0x02, 0x1b, 0xd8, 0xe7, 0x10, 0x2b, 0xf3, 0xe3,
  0x21, 0x05, 0xf2, 0x1b, 0xe8, 0x8e, 0x3f, 0xd2, 0xf7, 0x24, 0xca, 0xd1,
  0x1c, 0x01, 0x00, 0xe8, 0xe0, 0xe9, 0xf9, 0x08, 0xa2, 0xf0, 0xff, 0xff,
  0x00, 0x00, 0x00, 0x09, 0x10, 0x00, 0x00, 0x00, 0x0a, 0x00, 0x00, 0x00,
  0x1c, 0x00, 0x00, 0x00, 0x3c, 0x00, 0x00, 0x00, 0x04, 0x00, 0x00, 0x00,
  0x10, 0x00, 0x00, 0x00, 0x05, 0x00, 0x00, 0x00, 0x01, 0x00, 0x00, 0x00,
  0x10, 0x00, 0x00, 0x00, 0x1f, 0x00, 0x00, 0x00, 0x73, 0x65, 0x71, 0x75,
  0x65, 0x6e, 0x74, 0x69, 0x61, 0x6c, 0x5f, 0x34, 0x33, 0x2f, 0x63, 0x6f,
  0x6e, 0x76, 0x32, 0x64, 0x5f, 0x31, 0x34, 0x32, 0x2f, 0x43, 0x6f, 0x6e,
  0x76, 0x32, 0x44, 0x00, 0x0c, 0xf2, 0xff, 0xff, 0x08, 0x00, 0x00, 0x00,
  0x48, 0x00, 0x00, 0x00, 0x10, 0x00, 0x00, 0x00, 0xe0, 0x31, 0x93, 0x3b,
  0x83, 0xed, 0xb9, 0x3b, 0xc4, 0x79, 0xe2, 0x3b, 0xee, 0x8a, 0xb7, 0x3b,
  0x9b, 0xf7, 0x78, 0x3b, 0x76, 0xa1, 0x76, 0x3b, 0x9f, 0x49, 0xb3, 0x3b,
  0xb6, 0x47, 0xa0, 0x3b, 0x3d, 0x63, 0x8b, 0x3b, 0x36, 0x98, 0x40, 0x3b,
  0xe3, 0x53, 0xac, 0x3b, 0xeb, 0x2b, 0xe7, 0x3b, 0x28, 0x70, 0xd2, 0x3b,
  0xa1, 0xed, 0x67, 0x3b, 0x6d, 0x84, 0x8f, 0x3b, 0x4e, 0xa9, 0x8c, 0x3b,
  0x10, 0x00, 0x00, 0x00, 0x00, 0x00, 0x00, 0x00, 0x00, 0x00, 0x00, 0x00,
  0x00, 0x00, 0x00, 0x00, 0x00, 0x00, 0x00, 0x00, 0x00, 0x00, 0x00, 0x00,
  0x00, 0x00, 0x00, 0x00, 0x00, 0x00, 0x00, 0x00, 0x00, 0x00, 0x00, 0x00,
  0x00, 0x00, 0x00, 0x00, 0x00, 0x00, 0x00, 0x00, 0x00, 0x00, 0x00, 0x00,
  0x00, 0x00, 0x00, 0x00, 0x00, 0x00, 0x00, 0x00, 0x00, 0x00, 0x00, 0x00,
  0x00, 0x00, 0x00, 0x00, 0x00, 0x00, 0x00, 0x00, 0x00, 0x00, 0x00, 0x00,
  0x00, 0x00, 0x00, 0x00, 0x00, 0x00, 0x00, 0x00, 0x00, 0x00, 0x00, 0x00,
  0x00, 0x00, 0x00, 0x00, 0x00, 0x00, 0x00, 0x00, 0x00, 0x00, 0x00, 0x00,
  0x00, 0x00, 0x00, 0x00, 0x00, 0x00, 0x00, 0x00, 0x00, 0x00, 0x00, 0x00,
  0x00, 0x00, 0x00, 0x00, 0x00, 0x00, 0x00, 0x00, 0x00, 0x00, 0x00, 0x00,
  0x00, 0x00, 0x00, 0x00, 0x00, 0x00, 0x00, 0x00, 0x00, 0x00, 0x00, 0x00,
  0x00, 0x00, 0x00, 0x00, 0xfe, 0xf1, 0xff, 0xff, 0x04, 0x00, 0x00, 0x00,
  0x40, 0x00, 0x00, 0x00, 0xbb, 0xff, 0xff, 0xff, 0xd6, 0xf3, 0xff, 0xff,
  0xec, 0xfe, 0xff, 0xff, 0x4e, 0xff, 0xff, 0xff, 0xa2, 0xfd, 0xff, 0xff,
  0xea, 0xfc, 0xff, 0xff, 0x8c, 0x02, 0x00, 0x00, 0x8a, 0xfd, 0xff, 0xff,
  0x62, 0x02, 0x00, 0x00, 0x64, 0xff, 0xff, 0xff, 0xb2, 0xfe, 0xff, 0xff,
  0x5d, 0x06, 0x00, 0x00, 0xf5, 0x00, 0x00, 0x00, 0x76, 0xff, 0xff, 0xff,
  0x16, 0x05, 0x00, 0x00, 0x54, 0xfd, 0xff, 0xff, 0x16, 0xf2, 0xff, 0xff,
  0x00, 0x00, 0x00, 0x02, 0x10, 0x00, 0x00, 0x00, 0x09, 0x00, 0x00, 0x00,
  0x10, 0x00, 0x00, 0x00, 0x20, 0x00, 0x00, 0x00, 0x01, 0x00, 0x00, 0x00,
  0x10, 0x00, 0x00, 0x00, 0x0f, 0x00, 0x00, 0x00, 0x63, 0x6f, 0x6e, 0x76,
  0x32, 0x64, 0x5f, 0x31, 0x34, 0x31, 0x2f, 0x62, 0x69, 0x61, 0x73, 0x00,
  0x64, 0xf3, 0xff, 0xff, 0x08, 0x00, 0x00, 0x00, 0x48, 0x00, 0x00, 0x00,
  0x10, 0x00, 0x00, 0x00, 0x13, 0xbe, 0xea, 0x38, 0x44, 0xd9, 0xc9, 0x38,
  0xcb, 0x10, 0x02, 0x39, 0x4f, 0xe8, 0xc6, 0x38, 0xd2, 0x39, 0x01, 0x39,
  0x81, 0x34, 0xb4, 0x38, 0xed, 0xe2, 0x66, 0x39, 0x19, 0xce, 0xf2, 0x38,
  0xf9, 0xa1, 0xfc, 0x38, 0xc0, 0xca, 0x20, 0x39, 0x03, 0x1a, 0x18, 0x39,
  0x4d, 0xb8, 0xf0, 0x38, 0x0e, 0x8f, 0xdd, 0x38, 0xcf, 0xa9, 0xed, 0x38,
  0x75, 0xb2, 0xdb, 0x38, 0x0b, 0x38, 0x37, 0x39, 0x10, 0x00, 0x00, 0x00,
  0x00, 0x00, 0x00, 0x00, 0x00, 0x00, 0x00, 0x00, 0x00, 0x00, 0x00, 0x00,
  0x00, 0x00, 0x00, 0x00, 0x00, 0x00, 0x00, 0x00, 0x00, 0x00, 0x00, 0x00,
  0x00, 0x00, 0x00, 0x00, 0x00, 0x00, 0x00, 0x00, 0x00, 0x00, 0x00, 0x00,
  0x00, 0x00, 0x00, 0x00, 0x00, 0x00, 0x00, 0x00, 0x00, 0x00, 0x00, 0x00,
  0x00, 0x00, 0x00, 0x00, 0x00, 0x00, 0x00, 0x00, 0x00, 0x00, 0x00, 0x00,
  0x00, 0x00, 0x00, 0x00, 0x00, 0x00, 0x00, 0x00, 0x00, 0x00, 0x00, 0x00,
  0x00, 0x00, 0x00, 0x00, 0x00, 0x00, 0x00, 0x00, 0x00, 0x00, 0x00, 0x00,
  0x00, 0x00, 0x00, 0x00, 0x00, 0x00, 0x00, 0x00, 0x00, 0x00, 0x00, 0x00,
  0x00, 0x00, 0x00, 0x00, 0x00, 0x00, 0x00, 0x00, 0x00, 0x00, 0x00, 0x00,
  0x00, 0x00, 0x00, 0x00, 0x00, 0x00, 0x00, 0x00, 0x00, 0x00, 0x00, 0x00,
  0x00, 0x00, 0x00, 0x00, 0x00, 0x00, 0x00, 0x00, 0x52, 0xf3, 0xff, 0xff,
  0x04, 0x00, 0x00, 0x00, 0x00, 0x04, 0x00, 0x00, 0xb4, 0xb2, 0xe5, 0x27,
  0x42, 0xd1, 0xa3, 0x3d, 0xf1, 0xfb, 0x09, 0x2f, 0x4e, 0x08, 0x0e, 0x13,
  0xf1, 0xd6, 0x4f, 0xf0, 0xda, 0x1a, 0xec, 0x49, 0xa9, 0x6c, 0x06, 0x9c,
  0x56, 0xcc, 0xc5, 0xff, 0xbd, 0xa5, 0xa7, 0x12, 0xc9, 0xb4, 0x81, 0xe2,
  0xf3, 0xf6, 0xdf, 0x35, 0xd7, 0x1f, 0xc8, 0xed, 0xbf, 0xf5, 0x0f, 0x9a,
  0x86, 0xb3, 0xaf, 0x3b, 0x01, 0x57, 0xde, 0x81, 0x31, 0x3e, 0xe0, 0xeb,
  0xf3, 0xe8, 0xf8, 0x40, 0x1d, 0x2b, 0x50, 0x25, 0xdb, 0xfd, 0xc8, 0xd4,
  0x14, 0xc9, 0x5e, 0x13, 0x62, 0xe3, 0xa8, 0x4c, 0xb4, 0x26, 0x39, 0x10,
  0x16, 0xad, 0xee, 0x46, 0xe1, 0xe4, 0xeb, 0xf6, 0xf9, 0x08, 0x53, 0xed,
  0xf4, 0x52, 0x20, 0x14, 0x44, 0x78, 0xd5, 0xce, 0xee, 0xeb, 0x0b, 0x31,
  0x7f, 0xd7, 0xb3, 0x1a, 0xb8, 0xf3, 0x26, 0x19, 0xe7, 0xac, 0x16, 0xee,
  0xc3, 0xea, 0xb7, 0x51, 0xd5, 0x1e, 0xd3, 0x1e, 0x1a, 0xb4, 0xac, 0x1a,
  0xe0, 0x14, 0xaf, 0x00, 0xd5, 0x51, 0xd2, 0x3b, 0x3a, 0x25, 0x13, 0x26,
  0x7f, 0xf8, 0xdf, 0xcd, 0xf9, 0x01, 0x9e, 0x12, 0x20, 0xd1, 0x0c, 0x37,
  0x5c, 0xe3, 0x51, 0x4c, 0x77, 0xd4, 0x90, 0xe9, 0x14, 0xb3, 0xd7, 0xf0,
  0x2f, 0x1a, 0xa7, 0x0e, 0x1c, 0xe2, 0x5b, 0x61, 0x1f, 0x08, 0xfd, 0xe1,
  0x23, 0x0c, 0x8e, 0xec, 0x17, 0xcb, 0xc1, 0x06, 0x97, 0xe3, 0xd4, 0x08,
  0x01, 0x82, 0xd0, 0xdf, 0x18, 0x25, 0xf8, 0xe7, 0xd6, 0xef, 0xc9, 0x0e,
  0xbc, 0x06, 0xe6, 0xe2, 0x20, 0xab, 0x9d, 0x09, 0xe4, 0xbe, 0x17, 0x11,
  0x9d, 0x1c, 0xec, 0xcf, 0xd3, 0xb9, 0x1e, 0x18, 0x64, 0x0e, 0xdf, 0x62,
  0x35, 0x04, 0xd7, 0x54, 0x51, 0x47, 0x11, 0x48, 0xed, 0xe8, 0xa4, 0x2a,
  0x7f, 0xce, 0xff, 0xdf, 0x8b, 0x2f, 0x5a, 0xe3, 0x0f, 0x33, 0xe2, 0x2e,
  0x4a, 0xa5, 0x00, 0xfc, 0x3c, 0x35, 0x33, 0x38, 0xd8, 0x00, 0x18, 0x51,
  0xf8, 0xff, 0xb7, 0x1d, 0x28, 0xaa, 0x1b, 0xd1, 0xd3, 0xbd, 0x7b, 0x46,
  0x4c, 0x4b, 0xd1, 0xcf, 0xfd, 0xed, 0x0f, 0x19, 0x63, 0x34, 0x81, 0xf5,
  0xe6, 0x43, 0x14, 0xe3, 0xc4, 0x02, 0x17, 0xeb, 0xea, 0xe2, 0xe3, 0xdc,
  0x12, 0x2a, 0x12, 0xbd, 0x0a, 0x97, 0xf9, 0xcb, 0xc4, 0x06, 0x01, 0xa8,
  0x14, 0xd3, 0x25, 0xc6, 0xf4, 0xd6, 0x0b, 0x70, 0x86, 0x9b, 0xcc, 0xf7,
  0x56, 0x66, 0x33, 0x44, 0xb5, 0xae, 0xdd, 0x36, 0xe8, 0x9d, 0x23, 0xee,
  0x39, 0xea, 0xcb, 0x2a, 0x6d, 0xe4, 0xb0, 0x00, 0x36, 0x0e, 0x14, 0xeb,
  0x77, 0x97, 0xbf, 0x5c, 0xac, 0x2a, 0x86, 0xee, 0x2c, 0x06, 0x4f, 0x93,
  0xbd, 0xc4, 0xb4, 0x4b, 0xc4, 0x81, 0xef, 0x09, 0xbf, 0x38, 0x08, 0x0c,
  0xcc, 0x4b, 0x1f, 0xcb, 0x6d, 0x44, 0x3f, 0xf3, 0x20, 0xf4, 0xaa, 0x0a,
  0x0a, 0xfd, 0x01, 0xa5, 0xc6, 0xf1, 0xd0, 0xe6, 0xe6, 0xfd, 0x30, 0xf8,
  0xef, 0xea, 0xe5, 0x0c, 0xe2, 0xdb, 0xd9, 0x81, 0xc7, 0x02, 0xda, 0xd3,
  0xfd, 0xdd, 0x0e, 0x24, 0x03, 0x02, 0xfa, 0x12, 0x32, 0x26, 0x0d, 0x00,
  0x04, 0xca, 0x06, 0xd6, 0xdd, 0x3c, 0xfa, 0x33, 0x07, 0xe7, 0x31, 0xfb,
  0x25, 0x2e, 0x0e, 0xcc, 0x03, 0x0c, 0x13, 0xd1, 0x09, 0x11, 0xdc, 0x02,
  0x26, 0xf5, 0x81, 0x29, 0xb1, 0x47, 0x2b, 0xf2, 0xae, 0xc7, 0xf8, 0x08,
  0x24, 0xc9, 0x31, 0x32, 0xf2, 0xbf, 0x32, 0xda, 0x0d, 0xc6, 0x25, 0xd6,
  0xe4, 0x3b, 0xe6, 0xd9, 0x3e, 0xc8, 0x30, 0xf2, 0x21, 0xda, 0x98, 0x17,
  0x01, 0x20, 0x42, 0xd6, 0x17, 0xbf, 0x21, 0x1e, 0xe1, 0xe4, 0x15, 0x31,
  0xcc, 0xb8, 0x4c, 0x2b, 0xd4, 0x1a, 0x28, 0x49, 0x43, 0x60, 0x09, 0xcf,
  0x38, 0xe6, 0x4f, 0xf3, 0xd2, 0xc6, 0xc8, 0xdf, 0x9b, 0xbc, 0xb1, 0x19,
  0xcf, 0x23, 0x9c, 0x15, 0x05, 0xcf, 0xfa, 0xeb, 0xea, 0xcf, 0xe2, 0xad,
  0x81, 0x39, 0x36, 0x0e, 0xa3, 0x21, 0x91, 0x50, 0xe1, 0x09, 0x1f, 0xe9,
  0x27, 0xce, 0x28, 0x27, 0xef, 0x45, 0xfd, 0xeb, 0xdf, 0xdc, 0x85, 0x05,
  0xfc, 0xd7, 0x20, 0x11, 0xf2, 0xc4, 0x62, 0x06, 0x24, 0xe3, 0x0e, 0xf8,
  0xd7, 0x38, 0xcb, 0x60, 0x2d, 0x9f, 0x12, 0x53, 0x20, 0xe0, 0xea, 0x28,
  0x34, 0xdd, 0x01, 0xcb, 0xe7, 0xb4, 0x00, 0x11, 0x0f, 0xf3, 0x15, 0xf4,
  0x00, 0xf4, 0xf8, 0x4f, 0x06, 0x3f, 0x47, 0x19, 0xd8, 0x0d, 0xe5, 0x08,
  0x21, 0xeb, 0x23, 0xc3, 0xd9, 0x51, 0x06, 0x07, 0x0b, 0x81, 0x8a, 0x17,
  0xff, 0xc4, 0xea, 0x16, 0x17, 0x1e, 0xb4, 0xed, 0xe6, 0x3d, 0x46, 0xef,
  0xed, 0x3e, 0x09, 0x40, 0xe5, 0x3f, 0xf0, 0xd7, 0x2e, 0xfe, 0xf0, 0xe1,
  0xd9, 0x18, 0xdf, 0xe2, 0x05, 0xbc, 0xf2, 0x2a, 0x4c, 0x02, 0x1e, 0x1e,
  0xeb, 0x36, 0xd9, 0x56, 0xd0, 0x09, 0xc3, 0xda, 0x44, 0xeb, 0x18, 0xf4,
  0x07, 0xc5, 0x2e, 0xe8, 0x2b, 0x30, 0x12, 0xfc, 0xfe, 0x3d, 0x3f, 0xb0,
  0x2a, 0xd8, 0x3b, 0x26, 0x21, 0x0b, 0xec, 0xce, 0x0b, 0x16, 0x05, 0xec,
  0xee, 0x7f, 0xe3, 0x0c, 0x58, 0xd3, 0xdb, 0xca, 0xc3, 0xc3, 0x46, 0xb4,
  0x1e, 0x0b, 0xf0, 0x1c, 0x36, 0xf6, 0xee, 0x28, 0x08, 0x2a, 0x11, 0xd0,
  0x0f, 0x6c, 0x0b, 0xba, 0x3c, 0xdd, 0xdd, 0x3f, 0x16, 0x28, 0xfb, 0x50,
  0x2d, 0x2f, 0xee, 0xf6, 0x85, 0x08, 0x63, 0x8e, 0x16, 0xce, 0xef, 0x43,
  0xe1, 0x32, 0x44, 0x12, 0xda, 0xf3, 0x0f, 0xeb, 0x07, 0x1c, 0x3f, 0x8a,
  0x17, 0xcc, 0xa2, 0x17, 0x1f, 0x55, 0xf7, 0x19, 0x15, 0xfe, 0xff, 0xf8,
  0xda, 0x23, 0x7e, 0x81, 0x04, 0x06, 0xa9, 0xd4, 0xed, 0x67, 0x13, 0xf6,
  0x2d, 0x29, 0x08, 0xbd, 0xf0, 0x35, 0x9b, 0x09, 0xa1, 0xd4, 0xeb, 0xca,
  0x05, 0x7f, 0xe5, 0xcf, 0xe7, 0x6d, 0xd6, 0x00, 0x17, 0xea, 0xd2, 0x61,
  0x25, 0x06, 0x38, 0xd3, 0x41, 0x2a, 0x34, 0xcc, 0x36, 0xe2, 0xfc, 0x41,
  0xbe, 0x27, 0x4a, 0x09, 0xee, 0x13, 0x1e, 0x0c, 0x1c, 0xfe, 0x2f, 0xe8,
  0xe1, 0x17, 0xf5, 0x3b, 0xf6, 0x04, 0x5e, 0x95, 0x21, 0x12, 0xf4, 0xf9,
  0x1c, 0xc5, 0xdd, 0x36, 0x41, 0x7f, 0x04, 0xc0, 0xf3, 0x11, 0xc3, 0x40,
  0xff, 0xdf, 0xc8, 0x17, 0xf2, 0x9d, 0xe7, 0x2d, 0x09, 0x38, 0x03, 0x33,
  0x1e, 0x63, 0xa2, 0xd3, 0x33, 0xf8, 0x15, 0x19, 0x03, 0xc4, 0xe7, 0x1e,
  0xcc, 0x65, 0xcb, 0xd2, 0x45, 0xfa, 0xa8, 0x09, 0x31, 0xbc, 0xf6, 0x4c,
  0xe7, 0x9a, 0xf7, 0xef, 0xe7, 0x2f, 0x09, 0x23, 0x65, 0x63, 0xb1, 0xdc,
  0x38, 0xd6, 0xee, 0x59, 0xba, 0xbe, 0x81, 0xcb, 0xea, 0x90, 0x34, 0x16,
  0xea, 0x58, 0xc9, 0x12, 0x8b, 0x33, 0xd2, 0xdc, 0xaa, 0xe8, 0xb1, 0xce,
  0xe1, 0xce, 0x3c, 0x21, 0x3a, 0xfd, 0xc7, 0x52, 0x0e, 0xd7, 0x2e, 0xcf,
  0x27, 0xab, 0xe5, 0x07, 0xec, 0xde, 0x47, 0x14, 0xe5, 0x09, 0x05, 0xd9,
  0xa1, 0x21, 0xf4, 0x4d, 0x10, 0xe9, 0xb0, 0xd5, 0x6e, 0x2a, 0x63, 0x22,
  0x13, 0x24, 0x11, 0xe4, 0xd8, 0x58, 0x5b, 0xe3, 0x09, 0x48, 0x22, 0x05,
  0xd3, 0x0f, 0x50, 0x22, 0xe3, 0xf6, 0x24, 0x34, 0x13, 0x00, 0x16, 0x01,
  0xd4, 0x24, 0xd9, 0xfe, 0x1f, 0xe8, 0x14, 0xef, 0xed, 0xde, 0x41, 0x17,
  0xef, 0xd3, 0xf4, 0x32, 0xd4, 0x39, 0x32, 0xe0, 0xe7, 0x2a, 0x7f, 0x0e,
  0x37, 0x2e, 0x2a, 0xed, 0x0e, 0xf8, 0x0f, 0x1c, 0x09, 0x0e, 0xed, 0xc6,
  0xed, 0x11, 0x37, 0xf1, 0xd4, 0xee, 0x26, 0xe0, 0x0d, 0x08, 0x17, 0xe4,
  0x2a, 0xf7, 0xff, 0xff, 0x00, 0x00, 0x00, 0x09, 0x10, 0x00, 0x00, 0x00,
  0x08, 0x00, 0x00, 0x00, 0x1c, 0x00, 0x00, 0x00, 0x3c, 0x00, 0x00, 0x00,
  0x04, 0x00, 0x00, 0x00, 0x10, 0x00, 0x00, 0x00, 0x02, 0x00, 0x00, 0x00,
  0x02, 0x00, 0x00, 0x00, 0x10, 0x00, 0x00, 0x00, 0x1f, 0x00, 0x00, 0x00,
  0x73, 0x65, 0x71, 0x75, 0x65, 0x6e, 0x74, 0x69, 0x61, 0x6c, 0x5f, 0x34,
  0x33, 0x2f, 0x63, 0x6f, 0x6e, 0x76, 0x32, 0x64, 0x5f, 0x31, 0x34, 0x31,
  0x2f, 0x43, 0x6f, 0x6e, 0x76, 0x32, 0x44, 0x00, 0x94, 0xf8, 0xff, 0xff,
  0x08, 0x00, 0x00, 0x00, 0x48, 0x00, 0x00, 0x00, 0x10, 0x00, 0x00, 0x00,
  0xb0, 0x80, 0x74, 0x3b, 0xc1, 0x3d, 0x52, 0x3b, 0x38, 0x79, 0x87, 0x3b,
  0x7e, 0x2d, 0x4f, 0x3b, 0x4f, 0x99, 0x86, 0x3b, 0x9e, 0xb2, 0x3b, 0x3b,
  0x7f, 0x7c, 0xf0, 0x3b, 0x87, 0xe6, 0x7c, 0x3b, 0x81, 0x91, 0x83, 0x3b,
  0x3b, 0x7a, 0xa7, 0x3b, 0xfd, 0x6c, 0x9e, 0x3b, 0x8a, 0xba, 0x7a, 0x3b,
  0x57, 0xc5, 0x66, 0x3b, 0x83, 0x8b, 0x77, 0x3b, 0xed, 0xd4, 0x64, 0x3b,
  0x3c, 0xd6, 0xbe, 0x3b, 0x10, 0x00, 0x00, 0x00, 0x00, 0x00, 0x00, 0x00,
  0x00, 0x00, 0x00, 0x00, 0x00, 0x00, 0x00, 0x00, 0x00, 0x00, 0x00, 0x00,
  0x00, 0x00, 0x00, 0x00, 0x00, 0x00, 0x00, 0x00, 0x00, 0x00, 0x00, 0x00,
  0x00, 0x00, 0x00, 0x00, 0x00, 0x00, 0x00, 0x00, 0x00, 0x00, 0x00, 0x00,
  0x00, 0x00, 0x00, 0x00, 0x00, 0x00, 0x00, 0x00, 0x00, 0x00, 0x00, 0x00,
  0x00, 0x00, 0x00, 0x00, 0x00, 0x00, 0x00, 0x00, 0x00, 0x00, 0x00, 0x00,
  0x00, 0x00, 0x00, 0x00, 0x00, 0x00, 0x00, 0x00, 0x00, 0x00, 0x00, 0x00,
  0x00, 0x00, 0x00, 0x00, 0x00, 0x00, 0x00, 0x00, 0x00, 0x00, 0x00, 0x00,
  0x00, 0x00, 0x00, 0x00, 0x00, 0x00, 0x00, 0x00, 0x00, 0x00, 0x00, 0x00,
  0x00, 0x00, 0x00, 0x00, 0x00, 0x00, 0x00, 0x00, 0x00, 0x00, 0x00, 0x00,
  0x00, 0x00, 0x00, 0x00, 0x00, 0x00, 0x00, 0x00, 0x00, 0x00, 0x00, 0x00,
  0x00, 0x00, 0x00, 0x00, 0x00, 0x00, 0x00, 0x00, 0x86, 0xf8, 0xff, 0xff,
  0x04, 0x00, 0x00, 0x00, 0x40, 0x00, 0x00, 0x00, 0xcb, 0xf5, 0xff, 0xff,
  0xa5, 0xff, 0xff, 0xff, 0xd4, 0xfe, 0xff, 0xff, 0xdc, 0x00, 0x00, 0x00,
  0x08, 0x00, 0x00, 0x00, 0x13, 0xfa, 0xff, 0xff, 0xd8, 0x00, 0x00, 0x00,
  0xf6, 0x02, 0x00, 0x00, 0xb2, 0xf8, 0xff, 0xff, 0x8c, 0x05, 0x00, 0x00,
  0x11, 0x00, 0x00, 0x00, 0x98, 0x00, 0x00, 0x00, 0xe9, 0xfc, 0xff, 0xff,
  0x4a, 0x07, 0x00, 0x00, 0x0e, 0xfe, 0xff, 0xff, 0x12, 0x04, 0x00, 0x00,
  0x9e, 0xf8, 0xff, 0xff, 0x00, 0x00, 0x00, 0x02, 0x10, 0x00, 0x00, 0x00,
  0x07, 0x00, 0x00, 0x00, 0x10, 0x00, 0x00, 0x00, 0x20, 0x00, 0x00, 0x00,
  0x01, 0x00, 0x00, 0x00, 0x10, 0x00, 0x00, 0x00, 0x0f, 0x00, 0x00, 0x00,
  0x63, 0x6f, 0x6e, 0x76, 0x32, 0x64, 0x5f, 0x31, 0x34, 0x30, 0x2f, 0x62,
  0x69, 0x61, 0x73, 0x00, 0xec, 0xf9, 0xff, 0xff, 0x08, 0x00, 0x00, 0x00,
  0x48, 0x00, 0x00, 0x00, 0x10, 0x00, 0x00, 0x00, 0xdb, 0x5d, 0x91, 0x38,
  0x47, 0x69, 0xd6, 0x38, 0xa5, 0x71, 0xc1, 0x38, 0x53, 0x14, 0xb7, 0x38,
  0xf9, 0xf1, 0xe9, 0x38, 0x48, 0xc9, 0xef, 0x38, 0x1c, 0x25, 0x00, 0x39,
  0xa9, 0xd0, 0x00, 0x39, 0x1d, 0xe7, 0xe3, 0x38, 0xca, 0x07, 0xc3, 0x38,
  0x1b, 0xaa, 0xbb, 0x38, 0x0b, 0x04, 0xd5, 0x38, 0x61, 0x84, 0xaa, 0x38,
  0x3a, 0x45, 0xa3, 0x38, 0x5c, 0x48, 0xe1, 0x38, 0x02, 0x83, 0xde, 0x38,
  0x10, 0x00, 0x00, 0x00, 0x00, 0x00, 0x00, 0x00, 0x00, 0x00, 0x00, 0x00,
  0x00, 0x00, 0x00, 0x00, 0x00, 0x00, 0x00, 0x00, 0x00, 0x00, 0x00, 0x00,
  0x00, 0x00, 0x00, 0x00, 0x00, 0x00, 0x00, 0x00, 0x00, 0x00, 0x00, 0x00,
  0x00, 0x00, 0x00, 0x00, 0x00, 0x00, 0x00, 0x00, 0x00, 0x00, 0x00, 0x00,
  0x00, 0x00, 0x00, 0x00, 0x00, 0x00, 0x00, 0x00, 0x00, 0x00, 0x00, 0x00,
  0x00, 0x00, 0x00, 0x00, 0x00, 0x00, 0x00, 0x00, 0x00, 0x00, 0x00, 0x00,
  0x00, 0x00, 0x00, 0x00, 0x00, 0x00, 0x00, 0x00, 0x00, 0x00, 0x00, 0x00,
  0x00, 0x00, 0x00, 0x00, 0x00, 0x00, 0x00, 0x00, 0x00, 0x00, 0x00, 0x00,
  0x00, 0x00, 0x00, 0x00, 0x00, 0x00, 0x00, 0x00, 0x00, 0x00, 0x00, 0x00,
  0x00, 0x00, 0x00, 0x00, 0x00, 0x00, 0x00, 0x00, 0x00, 0x00, 0x00, 0x00,
  0x00, 0x00, 0x00, 0x00, 0x00, 0x00, 0x00, 0x00, 0x00, 0x00, 0x00, 0x00,
  0xda, 0xf9, 0xff, 0xff, 0x04, 0x00, 0x00, 0x00, 0x00, 0x02, 0x00, 0x00,
  0x50, 0x3e, 0xed, 0x52, 0x36, 0x1c, 0x30, 0x2a, 0x57, 0x08, 0x1e, 0x61,
  0x22, 0xa6, 0x9c, 0x06, 0x15, 0x2a, 0x68, 0xdb, 0x13, 0xdd, 0xd3, 0x1c,
  0xfa, 0x77, 0x5d, 0xef, 0x7f, 0x13, 0xe2, 0x9f, 0xf5, 0x04, 0xf7, 0xb4,
  0xfa, 0xca, 0xbd, 0xd6, 0x2a, 0xde, 0x17, 0xdd, 0xf3, 0xbb, 0xe1, 0xc6,
  0xbd, 0xea, 0xde, 0x33, 0xf8, 0xe2, 0x13, 0x48, 0x0e, 0x41, 0xf9, 0x36,
  0xfe, 0x8c, 0x03, 0x7f, 0x43, 0x3f, 0x7f, 0xfe, 0xe6, 0xfa, 0x41, 0x0e,
  0x54, 0xe7, 0xe5, 0x02, 0xa8, 0xc7, 0x69, 0x0c, 0xe7, 0xd5, 0x56, 0xb0,
  0x42, 0xae, 0x3d, 0x25, 0xae, 0x9c, 0xbd, 0xdc, 0xfd, 0xe2, 0x00, 0x33,
  0xca, 0x14, 0x74, 0xc3, 0x03, 0xec, 0xb3, 0x12, 0x0f, 0xf7, 0x78, 0x0e,
  0xf0, 0xe9, 0xf7, 0xf8, 0x6c, 0xde, 0x62, 0xde, 0x27, 0x07, 0x2b, 0x81,
  0x3d, 0xf3, 0x2a, 0xb0, 0xb8, 0xfe, 0xd2, 0x83, 0xae, 0xf3, 0x1d, 0x81,
  0x40, 0xcd, 0xca, 0xed, 0x38, 0xef, 0x43, 0xd4, 0x0c, 0x0e, 0xd1, 0xcb,
  0x26, 0xaf, 0x18, 0xaf, 0x08, 0x04, 0x4b, 0xec, 0x4c, 0xce, 0x66, 0xf6,
  0x6e, 0xd4, 0xfe, 0x0f, 0xb3, 0x04, 0x15, 0x60, 0xe5, 0xe5, 0xf3, 0x03,
  0x22, 0xce, 0x20, 0x4b, 0x1d, 0x01, 0x1e, 0xee, 0xbb, 0x26, 0x00, 0xe0,
  0xf5, 0x1d, 0xa5, 0xf5, 0x31, 0xee, 0x1d, 0x3b, 0xa4, 0xa9, 0x7f, 0x19,
  0x07, 0xcd, 0x2a, 0x61, 0xf6, 0x03, 0xc3, 0xeb, 0x04, 0xd3, 0xe5, 0xfe,
  0xe6, 0x03, 0xfb, 0xf6, 0x06, 0x01, 0x65, 0xea, 0xc5, 0x23, 0xb2, 0x2f,
  0x30, 0xf1, 0x89, 0xc1, 0xd4, 0xbf, 0x7f, 0x21, 0x7f, 0xdb, 0x18, 0xe8,
  0x00, 0xf3, 0x40, 0xe2, 0xf4, 0x00, 0xc7, 0xd7, 0x0e, 0x36, 0x58, 0xe3,
  0x39, 0xf3, 0x2b, 0x08, 0xf2, 0x07, 0x04, 0x0a, 0xc1, 0x14, 0xb0, 0xf8,
  0x05, 0xdf, 0x65, 0x5e, 0xfa, 0x22, 0x51, 0x81, 0xe7, 0xff, 0x0b, 0xd2,
  0xdb, 0xb9, 0xd5, 0xdc, 0x20, 0x3b, 0x1e, 0xbd, 0x27, 0xfa, 0xf4, 0xda,
  0x16, 0xe9, 0xdb, 0x4e, 0xf6, 0xd3, 0x9b, 0x1e, 0xe6, 0x44, 0x1d, 0x41,
  0x5d, 0xe5, 0xeb, 0x05, 0xd2, 0xca, 0x00, 0xca, 0xf2, 0x8e, 0x83, 0x0c,
  0xdb, 0xe5, 0xe7, 0x60, 0xbf, 0xd0, 0x7f, 0x43, 0xda, 0x04, 0x21, 0x3f,
  0xde, 0xf2, 0x85, 0xce, 0x37, 0x02, 0x67, 0x71, 0xaf, 0xba, 0xa3, 0x1a,
  0x4d, 0x06, 0x33, 0xe4, 0xa3, 0xfe, 0x07, 0x50, 0x5b, 0xce, 0x3e, 0x2b,
  0x0e, 0xcc, 0x45, 0x4f, 0xe0, 0x2f, 0x70, 0xab, 0x03, 0x30, 0x4e, 0xe6,
  0x46, 0x19, 0xce, 0x81, 0xfe, 0x19, 0x56, 0xcb, 0x94, 0xce, 0x1d, 0xd1,
  0x01, 0xd9, 0x3b, 0x4e, 0xdd, 0x5a, 0xed, 0xbc, 0x31, 0xe1, 0x27, 0xf9,
  0x1b, 0xe3, 0xf9, 0x20, 0xc2, 0xf0, 0x77, 0x48, 0x1a, 0xfc, 0xb6, 0x7f,
  0x48, 0xca, 0x76, 0x19, 0x64, 0x21, 0xca, 0xf2, 0xfe, 0xa9, 0xe1, 0x6c,
  0x39, 0xcd, 0x68, 0x47, 0x1f, 0x12, 0x2e, 0x1c, 0xe9, 0xde, 0xe6, 0x31,
  0x31, 0x81, 0xf7, 0x4f, 0x50, 0xba, 0x0a, 0x3f, 0x24, 0x41, 0xe9, 0xe8,
  0x08, 0xf1, 0xf2, 0xfe, 0xca, 0xd4, 0xbc, 0xe1, 0xca, 0x7f, 0x79, 0xfa,
  0xa7, 0xf2, 0xb1, 0xdb, 0x55, 0x28, 0xdc, 0xcc, 0x4d, 0xeb, 0xda, 0x24,
  0x12, 0x1f, 0x58, 0x9e, 0xe5, 0x38, 0x77, 0x06, 0x15, 0x37, 0xf5, 0x56,
  0xc9, 0x0e, 0x04, 0xe3, 0x0a, 0xf5, 0x29, 0x5a, 0xe4, 0x24, 0x7f, 0xd2,
  0xc4, 0xe4, 0x0d, 0xfb, 0x16, 0x12, 0x32, 0x0a, 0xcb, 0xdc, 0x4e, 0x07,
  0x30, 0x08, 0xe7, 0x3c, 0xea, 0x05, 0x92, 0xdd, 0xe2, 0xfa, 0xe0, 0x0b,
  0xdd, 0x49, 0xc0, 0x40, 0x49, 0xcc, 0x5f, 0x0a, 0x17, 0x62, 0xeb, 0x00,
  0xee, 0xdc, 0x2e, 0xda, 0x5e, 0x7f, 0xf6, 0xe2, 0xb2, 0xfb, 0xff, 0xff,
  0x00, 0x00, 0x00, 0x09, 0x10, 0x00, 0x00, 0x00, 0x06, 0x00, 0x00, 0x00,
  0x1c, 0x00, 0x00, 0x00, 0x3c, 0x00, 0x00, 0x00, 0x04, 0x00, 0x00, 0x00,
  0x10, 0x00, 0x00, 0x00, 0x02, 0x00, 0x00, 0x00, 0x02, 0x00, 0x00, 0x00,
  0x08, 0x00, 0x00, 0x00, 0x1f, 0x00, 0x00, 0x00, 0x73, 0x65, 0x71, 0x75,
  0x65, 0x6e, 0x74, 0x69, 0x61, 0x6c, 0x5f, 0x34, 0x33, 0x2f, 0x63, 0x6f,
  0x6e, 0x76, 0x32, 0x64, 0x5f, 0x31, 0x34, 0x30, 0x2f, 0x43, 0x6f, 0x6e,
  0x76, 0x32, 0x44, 0x00, 0x1c, 0xfd, 0xff, 0xff, 0x08, 0x00, 0x00, 0x00,
  0x48, 0x00, 0x00, 0x00, 0x10, 0x00, 0x00, 0x00, 0x28, 0xa9, 0x2c, 0x3b,
  0x54, 0xab, 0x7e, 0x3b, 0xdd, 0xc3, 0x65, 0x3b, 0x5b, 0x74, 0x59, 0x3b,
  0x7a, 0xef, 0x8a, 0x3b, 0x83, 0x67, 0x8e, 0x3b, 0x9f, 0x34, 0x98, 0x3b,
  0x61, 0x00, 0x99, 0x3b, 0xd4, 0x58, 0x87, 0x3b, 0x44, 0xa6, 0x67, 0x3b,
  0x86, 0xe6, 0x5e, 0x3b, 0x04, 0x03, 0x7d, 0x3b, 0x95, 0x88, 0x4a, 0x3b,
  0x1a, 0xed, 0x41, 0x3b, 0x7b, 0xca, 0x85, 0x3b, 0x36, 0x25, 0x84, 0x3b,
  0x10, 0x00, 0x00, 0x00, 0x00, 0x00, 0x00, 0x00, 0x00, 0x00, 0x00, 0x00,
  0x00, 0x00, 0x00, 0x00, 0x00, 0x00, 0x00, 0x00, 0x00, 0x00, 0x00, 0x00,
  0x00, 0x00, 0x00, 0x00, 0x00, 0x00, 0x00, 0x00, 0x00, 0x00, 0x00, 0x00,
  0x00, 0x00, 0x00, 0x00, 0x00, 0x00, 0x00, 0x00, 0x00, 0x00, 0x00, 0x00,
  0x00, 0x00, 0x00, 0x00, 0x00, 0x00, 0x00, 0x00, 0x00, 0x00, 0x00, 0x00,
  0x00, 0x00, 0x00, 0x00, 0x00, 0x00, 0x00, 0x00, 0x00, 0x00, 0x00, 0x00,
  0x00, 0x00, 0x00, 0x00, 0x00, 0x00, 0x00, 0x00, 0x00, 0x00, 0x00, 0x00,
  0x00, 0x00, 0x00, 0x00, 0x00, 0x00, 0x00, 0x00, 0x00, 0x00, 0x00, 0x00,
  0x00, 0x00, 0x00, 0x00, 0x00, 0x00, 0x00, 0x00, 0x00, 0x00, 0x00, 0x00,
  0x00, 0x00, 0x00, 0x00, 0x00, 0x00, 0x00, 0x00, 0x00, 0x00, 0x00, 0x00,
  0x00, 0x00, 0x00, 0x00, 0x00, 0x00, 0x00, 0x00, 0x00, 0x00, 0x00, 0x00,
  0x00, 0x00, 0x00, 0x00, 0x0e, 0xfd, 0xff, 0xff, 0x04, 0x00, 0x00, 0x00,
  0x20, 0x00, 0x00, 0x00, 0xd1, 0xff, 0xff, 0xff, 0x42, 0x0b, 0x00, 0x00,
  0x60, 0x00, 0x00, 0x00, 0x32, 0xff, 0xff, 0xff, 0xad, 0x05, 0x00, 0x00,
  0xd8, 0x02, 0x00, 0x00, 0x1d, 0x02, 0x00, 0x00, 0x45, 0x05, 0x00, 0x00,
  0x06, 0xfd, 0xff, 0xff, 0x00, 0x00, 0x00, 0x02, 0x10, 0x00, 0x00, 0x00,
  0x05, 0x00, 0x00, 0x00, 0x10, 0x00, 0x00, 0x00, 0x20, 0x00, 0x00, 0x00,
  0x01, 0x00, 0x00, 0x00, 0x08, 0x00, 0x00, 0x00, 0x0f, 0x00, 0x00, 0x00,
  0x63, 0x6f, 0x6e, 0x76, 0x32, 0x64, 0x5f, 0x31, 0x33, 0x39, 0x2f, 0x62,
  0x69, 0x61, 0x73, 0x00, 0x54, 0xfe, 0xff, 0xff, 0x08, 0x00, 0x00, 0x00,
  0x28, 0x00, 0x00, 0x00, 0x08, 0x00, 0x00, 0x00, 0x90, 0x2f, 0xe8, 0x38,
  0x0d, 0xd0, 0xc2, 0x38, 0xa4, 0x8d, 0x0c, 0x39, 0x96, 0xde, 0x0e, 0x39,
  0x58, 0xa4, 0x26, 0x39, 0x95, 0x04, 0xfd, 0x38, 0x1c, 0xa4, 0x2a, 0x39,
  0x18, 0x5c, 0x30, 0x39, 0x08, 0x00, 0x00, 0x00, 0x00, 0x00, 0x00, 0x00,
  0x00, 0x00, 0x00, 0x00, 0x00, 0x00, 0x00, 0x00, 0x00, 0x00, 0x00, 0x00,
  0x00, 0x00, 0x00, 0x00, 0x00, 0x00, 0x00, 0x00, 0x00, 0x00, 0x00, 0x00,
  0x00, 0x00, 0x00, 0x00, 0x00, 0x00, 0x00, 0x00, 0x00, 0x00, 0x00, 0x00,
  0x00, 0x00, 0x00, 0x00, 0x00, 0x00, 0x00, 0x00, 0x00, 0x00, 0x00, 0x00,
  0x00, 0x00, 0x00, 0x00, 0x00, 0x00, 0x00, 0x00, 0x00, 0x00, 0x00, 0x00,
  0x00, 0x00, 0x00, 0x00, 0xe6, 0xfd, 0xff, 0xff, 0x04, 0x00, 0x00, 0x00,
  0xd8, 0x00, 0x00, 0x00, 0x01, 0xf4, 0xfc, 0x43, 0x35, 0xf9, 0x45, 0x62,
  0x5f, 0x43, 0x2d, 0x15, 0x7c, 0x81, 0xe8, 0xdc, 0x08, 0x7d, 0x04, 0xba,
  0xc1, 0x0c, 0xa3, 0xd1, 0xdf, 0x0b, 0x4b, 0x31, 0xe8, 0xff, 0x89, 0x20,
  0x42, 0x81, 0xf0, 0x8c, 0x60, 0xfb, 0x4f, 0x92, 0x1e, 0x0f, 0x4d, 0x11,
  0xe3, 0x15, 0x77, 0x1a, 0x78, 0x5f, 0x47, 0x37, 0xe0, 0x32, 0xdf, 0xd6,
  0x65, 0xd0, 0x27, 0x4f, 0x84, 0x0a, 0xb9, 0xf7, 0xff, 0xe3, 0x53, 0x55,
  0x99, 0xdf, 0xf4, 0x01, 0x3f, 0x0e, 0x84, 0x05, 0xec, 0xe0, 0x7f, 0x24,
  0x08, 0x22, 0xec, 0x3c, 0x03, 0x09, 0x46, 0x15, 0x1a, 0xfc, 0x0b, 0x2a,
  0x28, 0xa0, 0xeb, 0x1c, 0xb6, 0x09, 0x47, 0x21, 0x21, 0x0a, 0x8e, 0x24,
  0x2d, 0x81, 0x1e, 0x0e, 0x28, 0xbd, 0xf5, 0x27, 0x06, 0xc4, 0xdc, 0xea,
  0xdb, 0x20, 0x14, 0xe6, 0x24, 0x3f, 0xf5, 0x06, 0x6d, 0xf8, 0x92, 0x08,
  0x19, 0x81, 0x2c, 0xdc, 0xc8, 0x32, 0xd9, 0xca, 0x12, 0xc6, 0x11, 0x30,
  0x15, 0xc1, 0xf5, 0x04, 0xfd, 0x4a, 0xdf, 0x33, 0xe8, 0x0d, 0x04, 0xf2,
  0xd2, 0xfa, 0x0f, 0xcc, 0x8e, 0xc4, 0xf1, 0x81, 0x8e, 0xdc, 0x21, 0x03,
  0x7f, 0xf6, 0xdd, 0x5a, 0x5b, 0x25, 0x05, 0x21, 0x3f, 0xc1, 0xc5, 0x0b,
  0xd1, 0x20, 0x6a, 0x0d, 0xfb, 0xdb, 0xd6, 0xe7, 0xc8, 0x9b, 0xc1, 0xf6,
  0x26, 0xfc, 0xc6, 0x1c, 0x40, 0xdf, 0x29, 0xef, 0xf5, 0xec, 0xc2, 0xe8,
  0xca, 0xe1, 0xff, 0xc3, 0xb6, 0xf0, 0xc4, 0x9b, 0x37, 0x1c, 0x1d, 0x60,
  0xc3, 0x20, 0x7f, 0x31, 0x96, 0xfe, 0xff, 0xff, 0x00, 0x00, 0x00, 0x09,
  0x10, 0x00, 0x00, 0x00, 0x04, 0x00, 0x00, 0x00, 0x1c, 0x00, 0x00, 0x00,
  0x48, 0x00, 0x00, 0x00, 0x04, 0x00, 0x00, 0x00, 0x08, 0x00, 0x00, 0x00,
  0x03, 0x00, 0x00, 0x00, 0x03, 0x00, 0x00, 0x00, 0x03, 0x00, 0x00, 0x00,
  0x1f, 0x00, 0x00, 0x00, 0x73, 0x65, 0x71, 0x75, 0x65, 0x6e, 0x74, 0x69,
  0x61, 0x6c, 0x5f, 0x34, 0x33, 0x2f, 0x63, 0x6f, 0x6e, 0x76, 0x32, 0x64,
  0x5f, 0x31, 0x33, 0x39, 0x2f, 0x43, 0x6f, 0x6e, 0x76, 0x32, 0x44, 0x00,
  0x0c, 0x00, 0x0c, 0x00, 0x00, 0x00, 0x00, 0x00, 0x04, 0x00, 0x08, 0x00,
  0x0c, 0x00, 0x00, 0x00, 0x08, 0x00, 0x00, 0x00, 0x28, 0x00, 0x00, 0x00,
  0x08, 0x00, 0x00, 0x00, 0xd9, 0x1c, 0x3c, 0x3b, 0x6d, 0xd5, 0x1d, 0x3b,
  0x56, 0xbf, 0x63, 0x3b, 0x1f, 0x80, 0x67, 0x3b, 0xa2, 0x02, 0x87, 0x3b,
  0x90, 0xfd, 0x4c, 0x3b, 0x11, 0x40, 0x8a, 0x3b, 0x29, 0xe2, 0x8e, 0x3b,
  0x08, 0x00, 0x00, 0x00, 0x00, 0x00, 0x00, 0x00, 0x00, 0x00, 0x00, 0x00,
  0x00, 0x00, 0x00, 0x00, 0x00, 0x00, 0x00, 0x00, 0x00, 0x00, 0x00, 0x00,
  0x00, 0x00, 0x00, 0x00, 0x00, 0x00, 0x00, 0x00, 0x00, 0x00, 0x00, 0x00,
  0x00, 0x00, 0x00, 0x00, 0x00, 0x00, 0x00, 0x00, 0x00, 0x00, 0x00, 0x00,
  0x00, 0x00, 0x00, 0x00, 0x00, 0x00, 0x00, 0x00, 0x00, 0x00, 0x00, 0x00,
  0x00, 0x00, 0x00, 0x00, 0x00, 0x00, 0x00, 0x00, 0x00, 0x00, 0x00, 0x00,
  0x9e, 0xff, 0xff, 0xff, 0x04, 0x00, 0x00, 0x00, 0x08, 0x00, 0x00, 0x00,
  0xff, 0xff, 0xff, 0xff, 0x50, 0x00, 0x00, 0x00, 0x7e, 0xff, 0xff, 0xff,
  0x00, 0x00, 0x00, 0x02, 0x10, 0x00, 0x00, 0x00, 0x03, 0x00, 0x00, 0x00,
  0x10, 0x00, 0x00, 0x00, 0x34, 0x00, 0x00, 0x00, 0x01, 0x00, 0x00, 0x00,
  0x02, 0x00, 0x00, 0x00, 0x1e, 0x00, 0x00, 0x00, 0x73, 0x65, 0x71, 0x75,
  0x65, 0x6e, 0x74, 0x69, 0x61, 0x6c, 0x5f, 0x34, 0x33, 0x2f, 0x66, 0x6c,
  0x61, 0x74, 0x74, 0x65, 0x6e, 0x5f, 0x34, 0x33, 0x2f, 0x43, 0x6f, 0x6e,
  0x73, 0x74, 0x00, 0x00, 0x04, 0x00, 0x06, 0x00, 0x04, 0x00, 0x00, 0x00,
  0x00, 0x00, 0x06, 0x00, 0x08, 0x00, 0x04, 0x00, 0x06, 0x00, 0x00, 0x00,
  0x04, 0x00, 0x00, 0x00, 0x20, 0x00, 0x00, 0x00, 0x00, 0x00, 0x00, 0x00,
  0x00, 0x00, 0x00, 0x00, 0x00, 0x00, 0x00, 0x00, 0x00, 0x00, 0x00, 0x00,
  0x02, 0x00, 0x00, 0x00, 0x02, 0x00, 0x00, 0x00, 0x00, 0x00, 0x00, 0x00,
  0x00, 0x00, 0x00, 0x00, 0x00, 0x00, 0x0e, 0x00, 0x18, 0x00, 0x08, 0x00,
  0x07, 0x00, 0x0c, 0x00, 0x10, 0x00, 0x14, 0x00, 0x0e, 0x00, 0x00, 0x00,
  0x00, 0x00, 0x00, 0x02, 0x10, 0x00, 0x00, 0x00, 0x02, 0x00, 0x00, 0x00,
  0x14, 0x00, 0x00, 0x00, 0x44, 0x00, 0x00, 0x00, 0x02, 0x00, 0x00, 0x00,
  0x04, 0x00, 0x00, 0x00, 0x02, 0x00, 0x00, 0x00, 0x2c, 0x00, 0x00, 0x00,
  0x73, 0x65, 0x71, 0x75, 0x65, 0x6e, 0x74, 0x69, 0x61, 0x6c, 0x5f, 0x34,
  0x33, 0x2f, 0x7a, 0x65, 0x72, 0x6f, 0x5f, 0x70, 0x61, 0x64, 0x64, 0x69,
  0x6e, 0x67, 0x32, 0x64, 0x5f, 0x31, 0x30, 0x2f, 0x50, 0x61, 0x64, 0x2f,
  0x70, 0x61, 0x64, 0x64, 0x69, 0x6e, 0x67, 0x73, 0x00, 0x00, 0x00, 0x00,
  0x80, 0xff, 0xff, 0xff, 0x14, 0x00, 0x18, 0x00, 0x04, 0x00, 0x00, 0x00,
  0x08, 0x00, 0x0c, 0x00, 0x10, 0x00, 0x00, 0x00, 0x00, 0x00, 0x14, 0x00,
  0x14, 0x00, 0x00, 0x00, 0x14, 0x00, 0x00, 0x00, 0x01, 0x00, 0x00, 0x00,
  0x34, 0x00, 0x00, 0x00, 0x54, 0x00, 0x00, 0x00, 0x18, 0x00, 0x00, 0x00,
  0x04, 0x00, 0x00, 0x00, 0x01, 0x00, 0x00, 0x00, 0x14, 0x00, 0x00, 0x00,
  0x05, 0x00, 0x00, 0x00, 0x03, 0x00, 0x00, 0x00, 0x04, 0x00, 0x00, 0x00,
  0xff, 0xff, 0xff, 0xff, 0x14, 0x00, 0x00, 0x00, 0x05, 0x00, 0x00, 0x00,
  0x03, 0x00, 0x00, 0x00, 0x1e, 0x00, 0x00, 0x00, 0x73, 0x65, 0x72, 0x76,
  0x69, 0x6e, 0x67, 0x5f, 0x64, 0x65, 0x66, 0x61, 0x75, 0x6c, 0x74, 0x5f,
  0x73, 0x65, 0x6e, 0x73, 0x6f, 0x72, 0x5f, 0x69, 0x6d, 0x61, 0x67, 0x65,
  0x3a, 0x30, 0x00, 0x00, 0xfc, 0xff, 0xff, 0xff, 0x04, 0x00, 0x04, 0x00,
  0x04, 0x00, 0x00, 0x00
};
unsigned int converted_model_tflite_len = 10168;
